// Auto-generated by train_beep_model.py
#pragma once

const unsigned int beep_model_len = 13672;
alignas(8) const unsigned char beep_model[] = {
    0x1c, 0x00, 0x00, 0x00, 0x54, 0x46, 0x4c, 0x33, 0x14, 0x00, 0x20, 0x00,
    0x1c, 0x00, 0x18, 0x00, 0x14, 0x00, 0x10, 0x00, 0x0c, 0x00, 0x00, 0x00,
    0x08, 0x00, 0x04, 0x00, 0x14, 0x00, 0x00, 0x00, 0x1c, 0x00, 0x00, 0x00,
    0x8c, 0x00, 0x00, 0x00, 0xe4, 0x00, 0x00, 0x00, 0xcc, 0x10, 0x00, 0x00,
    0xdc, 0x10, 0x00, 0x00, 0x94, 0x34, 0x00, 0x00, 0x03, 0x00, 0x00, 0x00,
    0x01, 0x00, 0x00, 0x00, 0x04, 0x00, 0x00, 0x00, 0x5a, 0xeb, 0xff, 0xff,
    0x0c, 0x00, 0x00, 0x00, 0x1c, 0x00, 0x00, 0x00, 0x3c, 0x00, 0x00, 0x00,
    0x0f, 0x00, 0x00, 0x00, 0x73, 0x65, 0x72, 0x76, 0x69, 0x6e, 0x67, 0x5f,
    0x64, 0x65, 0x66, 0x61, 0x75, 0x6c, 0x74, 0x00, 0x01, 0x00, 0x00, 0x00,
    0x04, 0x00, 0x00, 0x00, 0x90, 0xff, 0xff, 0xff, 0x27, 0x00, 0x00, 0x00,
    0x04, 0x00, 0x00, 0x00, 0x08, 0x00, 0x00, 0x00, 0x6f, 0x75, 0x74, 0x70,
    0x75, 0x74, 0x5f, 0x30, 0x00, 0x00, 0x00, 0x00, 0x01, 0x00, 0x00, 0x00,
    0x04, 0x00, 0x00, 0x00, 0xba, 0xef, 0xff, 0xff, 0x04, 0x00, 0x00, 0x00,
    0x0c, 0x00, 0x00, 0x00, 0x6b, 0x65, 0x72, 0x61, 0x73, 0x5f, 0x74, 0x65,
    0x6e, 0x73, 0x6f, 0x72, 0x00, 0x00, 0x00, 0x00, 0x02, 0x00, 0x00, 0x00,
    0x34, 0x00, 0x00, 0x00, 0x04, 0x00, 0x00, 0x00, 0xdc, 0xff, 0xff, 0xff,
    0x2a, 0x00, 0x00, 0x00, 0x04, 0x00, 0x00, 0x00, 0x13, 0x00, 0x00, 0x00,
    0x43, 0x4f, 0x4e, 0x56, 0x45, 0x52, 0x53, 0x49, 0x4f, 0x4e, 0x5f, 0x4d,
    0x45, 0x54, 0x41, 0x44, 0x41, 0x54, 0x41, 0x00, 0x08, 0x00, 0x0c, 0x00,
    0x08, 0x00, 0x04, 0x00, 0x08, 0x00, 0x00, 0x00, 0x29, 0x00, 0x00, 0x00,
    0x04, 0x00, 0x00, 0x00, 0x13, 0x00, 0x00, 0x00, 0x6d, 0x69, 0x6e, 0x5f,
    0x72, 0x75, 0x6e, 0x74, 0x69, 0x6d, 0x65, 0x5f, 0x76, 0x65, 0x72, 0x73,
    0x69, 0x6f, 0x6e, 0x00, 0x2b, 0x00, 0x00, 0x00, 0xe4, 0x0f, 0x00, 0x00,
    0xdc, 0x0f, 0x00, 0x00, 0xc8, 0x0f, 0x00, 0x00, 0xa4, 0x0f, 0x00, 0x00,
    0x90, 0x0f, 0x00, 0x00, 0x74, 0x0f, 0x00, 0x00, 0x58, 0x0f, 0x00, 0x00,
    0x3c, 0x0f, 0x00, 0x00, 0x20, 0x0f, 0x00, 0x00, 0x0c, 0x0f, 0x00, 0x00,
    0xf4, 0x0e, 0x00, 0x00, 0xc4, 0x0e, 0x00, 0x00, 0x34, 0x0e, 0x00, 0x00,
    0xe4, 0x0d, 0x00, 0x00, 0xd4, 0x0b, 0x00, 0x00, 0x44, 0x0b, 0x00, 0x00,
    0x34, 0x05, 0x00, 0x00, 0xe4, 0x04, 0x00, 0x00, 0x54, 0x03, 0x00, 0x00,
    0x24, 0x03, 0x00, 0x00, 0x34, 0x01, 0x00, 0x00, 0x2c, 0x01, 0x00, 0x00,
    0x24, 0x01, 0x00, 0x00, 0x1c, 0x01, 0x00, 0x00, 0x14, 0x01, 0x00, 0x00,
    0x0c, 0x01, 0x00, 0x00, 0x04, 0x01, 0x00, 0x00, 0xfc, 0x00, 0x00, 0x00,
    0xf4, 0x00, 0x00, 0x00, 0xec, 0x00, 0x00, 0x00, 0xe4, 0x00, 0x00, 0x00,
    0xdc, 0x00, 0x00, 0x00, 0xd4, 0x00, 0x00, 0x00, 0xcc, 0x00, 0x00, 0x00,
    0xc4, 0x00, 0x00, 0x00, 0xbc, 0x00, 0x00, 0x00, 0xb4, 0x00, 0x00, 0x00,
    0xac, 0x00, 0x00, 0x00, 0xa4, 0x00, 0x00, 0x00, 0x9c, 0x00, 0x00, 0x00,
    0x94, 0x00, 0x00, 0x00, 0x74, 0x00, 0x00, 0x00, 0x04, 0x00, 0x00, 0x00,
    0xe2, 0xf0, 0xff, 0xff, 0x04, 0x00, 0x00, 0x00, 0x60, 0x00, 0x00, 0x00,
    0x0c, 0x00, 0x00, 0x00, 0x08, 0x00, 0x0e, 0x00, 0x08, 0x00, 0x04, 0x00,
    0x08, 0x00, 0x00, 0x00, 0x10, 0x00, 0x00, 0x00, 0x28, 0x00, 0x00, 0x00,
    0x00, 0x00, 0x06, 0x00, 0x08, 0x00, 0x04, 0x00, 0x06, 0x00, 0x00, 0x00,
    0x04, 0x00, 0x00, 0x00, 0x01, 0x00, 0x00, 0x00, 0xeb, 0x03, 0x00, 0x00,
    0x0c, 0x00, 0x18, 0x00, 0x14, 0x00, 0x10, 0x00, 0x0c, 0x00, 0x04, 0x00,
    0x0c, 0x00, 0x00, 0x00, 0x16, 0xa4, 0xdd, 0x3a, 0x72, 0x10, 0xa8, 0x84,
    0x02, 0x00, 0x00, 0x00, 0x02, 0x00, 0x00, 0x00, 0x04, 0x00, 0x00, 0x00,
    0x06, 0x00, 0x00, 0x00, 0x32, 0x2e, 0x32, 0x30, 0x2e, 0x30, 0x00, 0x00,
    0x4e, 0xf1, 0xff, 0xff, 0x04, 0x00, 0x00, 0x00, 0x10, 0x00, 0x00, 0x00,
    0x31, 0x2e, 0x31, 0x34, 0x2e, 0x30, 0x00, 0x00, 0x00, 0x00, 0x00, 0x00,
    0x00, 0x00, 0x00, 0x00, 0x48, 0xce, 0xff, 0xff, 0x4c, 0xce, 0xff, 0xff,
    0x50, 0xce, 0xff, 0xff, 0x54, 0xce, 0xff, 0xff, 0x58, 0xce, 0xff, 0xff,
    0x5c, 0xce, 0xff, 0xff, 0x60, 0xce, 0xff, 0xff, 0x64, 0xce, 0xff, 0xff,
    0x68, 0xce, 0xff, 0xff, 0x6c, 0xce, 0xff, 0xff, 0x70, 0xce, 0xff, 0xff,
    0x74, 0xce, 0xff, 0xff, 0x78, 0xce, 0xff, 0xff, 0x7c, 0xce, 0xff, 0xff,
    0x80, 0xce, 0xff, 0xff, 0x84, 0xce, 0xff, 0xff, 0x88, 0xce, 0xff, 0xff,
    0x8c, 0xce, 0xff, 0xff, 0x90, 0xce, 0xff, 0xff, 0x94, 0xce, 0xff, 0xff,
    0xba, 0xf1, 0xff, 0xff, 0x04, 0x00, 0x00, 0x00, 0xe0, 0x01, 0x00, 0x00,
    0x23, 0x52, 0xea, 0xc4, 0xb7, 0x05, 0x1d, 0xd9, 0x05, 0x21, 0x34, 0x81,
    0x65, 0x73, 0x3b, 0xff, 0x9f, 0xac, 0xb9, 0x31, 0x11, 0xf8, 0xc6, 0x0c,
    0x2c, 0x11, 0x79, 0x3c, 0xe6, 0x74, 0x0b, 0x2b, 0x2c, 0x42, 0xbd, 0x14,
    0x0a, 0xfc, 0x03, 0x6d, 0xdc, 0x02, 0xd8, 0xbc, 0x60, 0x69, 0x7a, 0xce,
    0xf8, 0x00, 0x29, 0x8f, 0xc3, 0x02, 0x20, 0xfd, 0x84, 0xde, 0x5d, 0xe3,
    0xa7, 0xd1, 0xcb, 0x21, 0x24, 0xbe, 0x54, 0xd0, 0x02, 0xae, 0x4f, 0x10,
    0x38, 0x2f, 0x29, 0xc3, 0x3b, 0x49, 0x19, 0x22, 0x5f, 0xac, 0xf5, 0xf8,
    0x55, 0xce, 0xe2, 0xd9, 0xd3, 0x9e, 0x11, 0xe8, 0xa9, 0xc4, 0x7f, 0x54,
    0xf6, 0xbc, 0x4f, 0xd4, 0xd9, 0x1f, 0x14, 0x1a, 0x24, 0xde, 0x19, 0x0e,
    0x86, 0x11, 0x52, 0x37, 0x57, 0xdd, 0xfa, 0x04, 0xe1, 0x89, 0x49, 0xd7,
    0x4c, 0x5e, 0xae, 0xcf, 0x39, 0x1d, 0x36, 0xe6, 0xbc, 0x9a, 0xd1, 0xf8,
    0x2f, 0x24, 0x2e, 0xb0, 0x0c, 0xb6, 0x19, 0xd3, 0xce, 0xf4, 0x0c, 0x15,
    0xb4, 0xc7, 0xfa, 0xc5, 0x0e, 0x1a, 0x29, 0x5d, 0x0f, 0x46, 0xab, 0xe1,
    0x40, 0xf0, 0xc7, 0x7f, 0x13, 0x4c, 0x3a, 0x39, 0x0f, 0x44, 0xa9, 0x0c,
    0xc1, 0xc8, 0x3b, 0x60, 0x6c, 0xf4, 0x06, 0xa8, 0x58, 0x33, 0xbb, 0xcb,
    0x17, 0x0a, 0x4c, 0x6a, 0x62, 0x0e, 0xad, 0xd1, 0xef, 0x83, 0xe0, 0x8b,
    0xe9, 0x23, 0x0f, 0x88, 0x90, 0xe7, 0xe7, 0xfa, 0xce, 0x04, 0x46, 0x22,
    0xf9, 0x30, 0xe2, 0x39, 0x7f, 0xa9, 0xaf, 0xc4, 0xfc, 0xcd, 0xb0, 0x49,
    0xb3, 0xd3, 0xe1, 0x87, 0x23, 0x18, 0xec, 0xce, 0x94, 0x0b, 0xce, 0xff,
    0xce, 0x53, 0xe0, 0x56, 0xf1, 0x5a, 0xe9, 0xc2, 0x8a, 0xb7, 0xb2, 0xc1,
    0x0a, 0xb5, 0x81, 0xca, 0xf9, 0xfb, 0x48, 0x6d, 0x19, 0x53, 0x8f, 0xfa,
    0xbe, 0xf3, 0xba, 0x42, 0x2b, 0x2c, 0x3e, 0x93, 0x08, 0x24, 0x2f, 0xef,
    0xef, 0x1f, 0xd3, 0x16, 0xcf, 0x3d, 0x23, 0xed, 0x5e, 0xb8, 0xbb, 0x2a,
    0x53, 0x0a, 0x9c, 0x37, 0x26, 0xd0, 0xf3, 0x5f, 0xeb, 0xfb, 0x0b, 0xd6,
    0xe1, 0x17, 0xd9, 0x1a, 0x4c, 0xba, 0x1b, 0x35, 0x5b, 0x1e, 0x9a, 0xc6,
    0xe5, 0x9a, 0x16, 0x91, 0x0e, 0xd9, 0xb1, 0xf6, 0xd6, 0x67, 0x58, 0x5e,
    0xdb, 0xa9, 0x0b, 0xf1, 0x9e, 0x6c, 0x45, 0xa5, 0x22, 0xf9, 0x28, 0xc6,
    0xe5, 0x38, 0x3b, 0xba, 0xdc, 0x46, 0xb6, 0xd2, 0x4e, 0x9e, 0x47, 0xd0,
    0x14, 0x40, 0x05, 0xaf, 0x7f, 0xc7, 0x15, 0x46, 0x20, 0x36, 0xdd, 0x20,
    0xdd, 0xbf, 0xa5, 0xd0, 0x18, 0xfa, 0xd4, 0xc9, 0xff, 0x36, 0x0c, 0xe9,
    0x20, 0x56, 0x0e, 0xa2, 0xbd, 0xae, 0x2b, 0x34, 0x0f, 0xaa, 0xd1, 0x01,
    0x09, 0x58, 0x1c, 0x21, 0x48, 0x0c, 0x1c, 0x23, 0x63, 0x19, 0x5d, 0xef,
    0x3e, 0x9b, 0xca, 0xfc, 0xe9, 0x43, 0xad, 0xdc, 0x2c, 0x1c, 0x2f, 0x08,
    0x5a, 0x52, 0x6a, 0xb4, 0xd0, 0x53, 0xf8, 0x11, 0x11, 0x99, 0xe7, 0xdf,
    0x1d, 0x2a, 0xbf, 0x9f, 0x20, 0x5f, 0xb8, 0x55, 0xbc, 0xf1, 0x7f, 0x83,
    0xf4, 0xaf, 0xfa, 0x43, 0xb2, 0x4c, 0x19, 0xb6, 0xd9, 0x51, 0x31, 0x6b,
    0x14, 0x44, 0xd2, 0xfa, 0xca, 0xd5, 0xd0, 0x02, 0x3c, 0xfc, 0xf1, 0xca,
    0xbb, 0x24, 0x63, 0xbc, 0xad, 0x38, 0xfb, 0x14, 0x98, 0x2a, 0xc2, 0x42,
    0xe5, 0xef, 0xf9, 0x05, 0x1a, 0x29, 0xfc, 0x81, 0x3d, 0xba, 0xcb, 0xc8,
    0xde, 0x2d, 0x02, 0x69, 0x04, 0x63, 0xe1, 0xb9, 0xf0, 0xae, 0xfa, 0x09,
    0xa6, 0xf3, 0xff, 0xff, 0x04, 0x00, 0x00, 0x00, 0x20, 0x00, 0x00, 0x00,
    0xcd, 0x01, 0x00, 0x00, 0x52, 0xfa, 0xff, 0xff, 0x8e, 0x12, 0x00, 0x00,
    0x3a, 0x00, 0x00, 0x00, 0x7c, 0x1e, 0x00, 0x00, 0xb2, 0x54, 0x00, 0x00,
    0xcb, 0x2d, 0x00, 0x00, 0x7b, 0x2c, 0x00, 0x00, 0xd2, 0xf3, 0xff, 0xff,
    0x04, 0x00, 0x00, 0x00, 0x80, 0x01, 0x00, 0x00, 0xd4, 0x2d, 0xb9, 0x5f,
    0xcc, 0xc3, 0x47, 0x64, 0xca, 0x4a, 0xd4, 0xb2, 0x8e, 0xc1, 0x8f, 0x45,
    0x40, 0x22, 0x56, 0xd3, 0x81, 0xf3, 0xa9, 0x2f, 0x35, 0x41, 0x1e, 0x14,
    0x74, 0x17, 0x06, 0xb7, 0x7f, 0xa9, 0xd0, 0xa4, 0x25, 0x0d, 0x5f, 0x47,
    0xc6, 0x56, 0x9f, 0x0a, 0x5a, 0x26, 0x04, 0xcd, 0x82, 0x8f, 0x8b, 0x7f,
    0xbd, 0x93, 0x2d, 0xc8, 0x35, 0x2c, 0x30, 0x4c, 0x65, 0xdf, 0xa2, 0x58,
    0xbf, 0x6c, 0xb4, 0x58, 0xde, 0x29, 0xf4, 0x03, 0x23, 0x8d, 0x39, 0xcb,
    0x81, 0xc4, 0xe4, 0x5e, 0x5c, 0xe2, 0x26, 0x1e, 0x0d, 0xd2, 0xce, 0xd3,
    0xe5, 0xe7, 0x75, 0xf1, 0x14, 0xa9, 0x35, 0x58, 0xba, 0xf8, 0xd9, 0x29,
    0x06, 0xdb, 0x34, 0xc3, 0x28, 0x11, 0x2d, 0x81, 0xc0, 0x57, 0xc3, 0x1b,
    0xe9, 0xb2, 0x76, 0xed, 0xd0, 0x0b, 0xc8, 0x61, 0x57, 0x4d, 0x81, 0x7c,
    0x64, 0xd9, 0xd6, 0x45, 0x33, 0x26, 0x0a, 0xe9, 0xc0, 0x41, 0x69, 0xa3,
    0xd7, 0x87, 0xb7, 0x83, 0x37, 0x54, 0xf3, 0x3a, 0x94, 0x41, 0x05, 0x82,
    0xa4, 0x8f, 0x2f, 0xfa, 0xf6, 0xab, 0x38, 0x1c, 0x59, 0xfc, 0xe7, 0x59,
    0xae, 0x56, 0x4d, 0x21, 0x81, 0xe7, 0xbc, 0xa0, 0x29, 0xff, 0xab, 0x38,
    0xd5, 0x8e, 0xf8, 0x5b, 0xfb, 0x81, 0x5e, 0x19, 0xeb, 0xd5, 0x19, 0x6d,
    0x49, 0xc5, 0xfa, 0x1a, 0xc6, 0x62, 0x2d, 0x52, 0x11, 0x14, 0x9a, 0x76,
    0xfc, 0x83, 0x59, 0xdd, 0x85, 0x66, 0x17, 0xda, 0x36, 0x81, 0x90, 0xf7,
    0xeb, 0x3e, 0xdb, 0xfa, 0x41, 0x45, 0x10, 0xa0, 0xeb, 0x30, 0x18, 0x0f,
    0xf7, 0xa1, 0xdb, 0x8b, 0xbc, 0x4c, 0x99, 0xdf, 0x48, 0x9a, 0x02, 0x81,
    0x95, 0x2f, 0x30, 0x2f, 0x53, 0xe3, 0x1c, 0xb7, 0xac, 0x28, 0x8e, 0x93,
    0x17, 0x31, 0x08, 0xeb, 0x5a, 0x81, 0x41, 0x86, 0x63, 0x87, 0xa9, 0x36,
    0xf8, 0x20, 0x8a, 0x84, 0x6f, 0x65, 0x9b, 0xdc, 0x1c, 0xa3, 0x38, 0x48,
    0x42, 0xa2, 0xd7, 0x01, 0x49, 0x33, 0x35, 0x50, 0xbb, 0x92, 0x0e, 0xa6,
    0xdf, 0x81, 0x9a, 0x50, 0x3e, 0xaa, 0x58, 0x00, 0xb8, 0x81, 0x47, 0xb0,
    0xcf, 0xac, 0xe3, 0x3b, 0xda, 0xef, 0x5f, 0xe2, 0xba, 0x0e, 0x8c, 0x38,
    0xfc, 0xcb, 0x20, 0x13, 0x3d, 0x28, 0x5e, 0xd5, 0x29, 0x45, 0x0a, 0x6a,
    0xc5, 0x5e, 0xff, 0x09, 0xb0, 0x25, 0x7c, 0xf9, 0xf1, 0xb5, 0x7f, 0x41,
    0x41, 0xb1, 0x28, 0x1d, 0x3c, 0xd8, 0x3d, 0x0b, 0xaa, 0x34, 0x57, 0xfe,
    0x9c, 0x4a, 0x4d, 0x1a, 0x88, 0x0c, 0xff, 0x88, 0x65, 0xc1, 0x0a, 0xbb,
    0x81, 0x53, 0xbf, 0xfe, 0x73, 0x21, 0xf5, 0xb6, 0xa1, 0x10, 0x40, 0x87,
    0xeb, 0x4b, 0xcd, 0xb6, 0x2d, 0x81, 0xf2, 0xdd, 0x02, 0x12, 0x36, 0x6e,
    0xe5, 0x9e, 0x61, 0x0f, 0xc1, 0xc8, 0x23, 0xee, 0x5e, 0xf5, 0xff, 0xff,
    0x04, 0x00, 0x00, 0x00, 0x40, 0x00, 0x00, 0x00, 0xb1, 0x1a, 0x00, 0x00,
    0x47, 0xe5, 0xff, 0xff, 0x37, 0xfd, 0xff, 0xff, 0x61, 0x03, 0x00, 0x00,
    0x6b, 0x0e, 0x00, 0x00, 0x45, 0xf2, 0xff, 0xff, 0xd7, 0x17, 0x00, 0x00,
    0x74, 0xe9, 0xff, 0xff, 0x6c, 0x0b, 0x00, 0x00, 0x4e, 0x1f, 0x00, 0x00,
    0x64, 0x27, 0x00, 0x00, 0x2c, 0x00, 0x00, 0x00, 0x4d, 0x12, 0x00, 0x00,
    0xf1, 0xd7, 0xff, 0xff, 0x50, 0x0d, 0x00, 0x00, 0x01, 0x15, 0x00, 0x00,
    0xaa, 0xf5, 0xff, 0xff, 0x04, 0x00, 0x00, 0x00, 0x00, 0x06, 0x00, 0x00,
    0x95, 0xfd, 0x8f, 0x4b, 0xcd, 0x4e, 0xfe, 0xfa, 0x69, 0xb5, 0xf3, 0x24,
    0x36, 0x55, 0x93, 0x8c, 0xff, 0x4a, 0xb0, 0xae, 0x77, 0xe9, 0xa8, 0x7b,
    0xb7, 0xf3, 0xd7, 0xbb, 0x81, 0xb2, 0x5b, 0x9c, 0xb2, 0x5b, 0x45, 0x9a,
    0x57, 0xa4, 0x65, 0x1a, 0x6f, 0x14, 0x46, 0x0e, 0x95, 0xcf, 0x13, 0x8e,
    0xbd, 0x46, 0xbf, 0x1b, 0x6a, 0x6e, 0xca, 0x81, 0xdd, 0xbf, 0xc1, 0x45,
    0x39, 0x15, 0x45, 0x52, 0xf7, 0x1f, 0xcb, 0x41, 0xd4, 0x5b, 0xc2, 0xef,
    0xbf, 0xf6, 0xe1, 0x22, 0x2c, 0xd7, 0x8a, 0xfc, 0xce, 0xe7, 0xde, 0x97,
    0xbf, 0x77, 0x3a, 0x73, 0x4f, 0xb7, 0xf3, 0xb8, 0x34, 0xb3, 0xdc, 0x86,
    0xd5, 0x1b, 0x7f, 0xff, 0x2a, 0x2a, 0xd6, 0xe2, 0x6c, 0xfb, 0xee, 0x51,
    0xd5, 0xfd, 0xc9, 0x3b, 0x53, 0x7f, 0x53, 0x50, 0xb6, 0x2f, 0x6c, 0x79,
    0x95, 0xd8, 0xd2, 0x49, 0x65, 0xc2, 0xc5, 0x57, 0x24, 0xe3, 0x96, 0xfc,
    0x09, 0x55, 0x28, 0x5a, 0xac, 0xe9, 0xf3, 0x3b, 0xc6, 0xc7, 0xfd, 0x9f,
    0x4c, 0x1d, 0xb7, 0x73, 0x0e, 0xbe, 0x22, 0xea, 0xd4, 0xfe, 0x00, 0x2b,
    0x2e, 0x1a, 0x51, 0xe2, 0xdf, 0x16, 0x0d, 0x6a, 0x39, 0x8d, 0x76, 0x1f,
    0xe4, 0x27, 0x39, 0xf8, 0x7f, 0x42, 0x6e, 0xd0, 0x02, 0x17, 0x22, 0xdb,
    0x06, 0xd0, 0xdd, 0x6c, 0xdf, 0x52, 0x90, 0x38, 0x00, 0x9a, 0xe8, 0xf6,
    0xb7, 0x10, 0xc3, 0xb0, 0x7e, 0xe2, 0xcd, 0x51, 0xbe, 0x40, 0x33, 0xd7,
    0x3f, 0xcc, 0x11, 0x54, 0x52, 0xec, 0x27, 0x4b, 0xd0, 0xf0, 0x24, 0xb6,
    0x2e, 0xf6, 0x96, 0xda, 0x6b, 0xe5, 0xca, 0x7f, 0xd0, 0x20, 0x64, 0xda,
    0x34, 0x24, 0x58, 0x95, 0x08, 0x1f, 0x03, 0x07, 0x5f, 0xaf, 0xfe, 0x33,
    0x6c, 0x66, 0x34, 0xfb, 0x21, 0xb3, 0x81, 0x20, 0x8c, 0xe8, 0x5e, 0x38,
    0xaa, 0x1b, 0xcc, 0xe2, 0xad, 0xc4, 0xf0, 0xcd, 0x19, 0xc8, 0xd6, 0xff,
    0xc2, 0x59, 0x7d, 0x8c, 0xc8, 0x7b, 0x0e, 0x8b, 0x05, 0x16, 0xe4, 0x0f,
    0xb7, 0xb3, 0xdb, 0xbb, 0x16, 0xc3, 0x58, 0xa3, 0x0b, 0x23, 0xda, 0x8b,
    0x4c, 0x72, 0x9f, 0x99, 0xc2, 0x06, 0xe9, 0x35, 0x4b, 0x81, 0xff, 0x0b,
    0xba, 0x10, 0xed, 0x9a, 0x25, 0x2a, 0x92, 0x09, 0xda, 0x29, 0x7a, 0x15,
    0x9d, 0x26, 0x26, 0x00, 0x98, 0x10, 0xe1, 0x94, 0x1d, 0x42, 0x1e, 0x8a,
    0x81, 0xda, 0x60, 0xcb, 0x85, 0xa6, 0x2d, 0xdc, 0x65, 0x62, 0x62, 0x0d,
    0x1f, 0x45, 0x59, 0x28, 0x70, 0x1b, 0xa5, 0x81, 0x50, 0xf5, 0xbc, 0x8c,
    0x00, 0xa1, 0x38, 0x6d, 0x61, 0xc0, 0x40, 0xf0, 0x72, 0xf2, 0x0b, 0x05,
    0x76, 0x92, 0x93, 0x8a, 0xb8, 0xdd, 0x87, 0x69, 0xd3, 0x91, 0x0f, 0xc2,
    0x5d, 0xc4, 0x13, 0x0c, 0xa4, 0xb4, 0xf9, 0xe2, 0xce, 0x24, 0x49, 0x51,
    0xc5, 0x35, 0x24, 0x5d, 0xd6, 0x4b, 0xfa, 0xe7, 0xbf, 0x66, 0xd3, 0xbe,
    0x8b, 0x1d, 0xf8, 0x4e, 0x4a, 0xbf, 0xb5, 0x23, 0x14, 0x46, 0x29, 0x5e,
    0x0a, 0x00, 0x1e, 0xa2, 0xb2, 0xa5, 0x51, 0xb6, 0x04, 0x52, 0x81, 0x22,
    0xfd, 0x1d, 0xb2, 0x09, 0x3f, 0x30, 0x3a, 0x48, 0xd1, 0xd4, 0x0f, 0x38,
    0xaa, 0x34, 0xf3, 0xd6, 0x43, 0x36, 0x01, 0xc9, 0xe2, 0xc6, 0x34, 0x4a,
    0xcd, 0x20, 0xd8, 0xc1, 0xca, 0x24, 0x29, 0xd2, 0x42, 0x43, 0xe0, 0x0c,
    0x97, 0xce, 0xb2, 0x39, 0x2f, 0xec, 0x82, 0xab, 0x53, 0x0e, 0x3e, 0x31,
    0x9c, 0xb7, 0xe0, 0xe2, 0xce, 0x7f, 0x9f, 0xcf, 0xb5, 0x04, 0xc5, 0xae,
    0x4d, 0x25, 0xb7, 0xec, 0xce, 0xf8, 0x26, 0x40, 0x54, 0xc4, 0x81, 0x12,
    0x40, 0xdc, 0xb1, 0x52, 0xd3, 0xad, 0x49, 0xfb, 0xc7, 0x48, 0xb2, 0x06,
    0x34, 0x02, 0xcb, 0xb5, 0xfd, 0xc2, 0xeb, 0x13, 0x4f, 0xe2, 0x1f, 0xad,
    0xb3, 0xba, 0x21, 0x2e, 0xe1, 0x12, 0xc3, 0xf0, 0x23, 0xdc, 0xe1, 0xb7,
    0x37, 0x15, 0x33, 0xa3, 0xf5, 0x7a, 0xda, 0xed, 0x00, 0xf8, 0x08, 0xaf,
    0xb6, 0xca, 0x0f, 0x8f, 0x31, 0xc4, 0xa0, 0xff, 0xcb, 0x3f, 0xbd, 0x9d,
    0xbc, 0x45, 0xeb, 0x87, 0x81, 0xb2, 0x01, 0xca, 0x1a, 0x60, 0xbb, 0x46,
    0xea, 0xa8, 0xfa, 0x20, 0xb0, 0x33, 0xd7, 0x2f, 0x5c, 0xce, 0x69, 0x4e,
    0x18, 0x58, 0xe7, 0x3d, 0x1e, 0xbd, 0x18, 0x13, 0x52, 0xae, 0x51, 0xfc,
    0xd5, 0x12, 0x8e, 0xb0, 0x0d, 0xa3, 0x4c, 0x50, 0xfa, 0xb2, 0x37, 0x46,
    0x54, 0xa5, 0xbf, 0xfe, 0x38, 0x89, 0xe6, 0x34, 0xfa, 0xfa, 0xd3, 0x3a,
    0x7f, 0xaa, 0x56, 0x04, 0xf6, 0xd2, 0x1b, 0x17, 0x1c, 0xc7, 0xcb, 0x39,
    0x76, 0x81, 0xf9, 0x45, 0x4a, 0x2f, 0xb2, 0xe7, 0xb5, 0xdc, 0xf3, 0x27,
    0x33, 0x2b, 0x48, 0x63, 0xed, 0x3c, 0x3f, 0xdd, 0xb8, 0xe1, 0x8d, 0x35,
    0x31, 0xc7, 0xcf, 0x25, 0xcf, 0xcc, 0xd8, 0xbd, 0xd6, 0x95, 0x1f, 0x4d,
    0x3d, 0x02, 0x21, 0x00, 0xca, 0x3e, 0x07, 0x1b, 0x18, 0x9b, 0xcc, 0x77,
    0x81, 0xeb, 0x2e, 0x53, 0xd3, 0x7e, 0xfe, 0xb7, 0xa5, 0xc8, 0x5c, 0x07,
    0x86, 0x16, 0xc1, 0x62, 0xc6, 0xf7, 0xec, 0x9a, 0xab, 0xb8, 0xfe, 0x0e,
    0x11, 0x5a, 0x2c, 0x22, 0xb6, 0x61, 0x8d, 0xbf, 0x0c, 0xfd, 0xe4, 0xbc,
    0xa8, 0xf2, 0xc5, 0x02, 0xee, 0x4d, 0xcf, 0x7c, 0x15, 0x00, 0xb8, 0xf0,
    0xd6, 0xd4, 0x55, 0xd8, 0xea, 0x2f, 0x59, 0x1d, 0x2c, 0xf2, 0xe0, 0x38,
    0x40, 0xec, 0xa9, 0xf8, 0xf7, 0x47, 0x01, 0x14, 0x08, 0x33, 0xbc, 0xfd,
    0xde, 0xbf, 0xfa, 0x3a, 0x15, 0xfc, 0x9e, 0xb1, 0xec, 0x2c, 0x1b, 0x12,
    0x20, 0xe4, 0x5b, 0x50, 0xcb, 0xc9, 0x09, 0xbf, 0xf2, 0x0d, 0xeb, 0x81,
    0x4d, 0x21, 0x18, 0x01, 0x25, 0x54, 0x0f, 0xae, 0xfc, 0x1a, 0x9b, 0x52,
    0xa2, 0x9c, 0x2b, 0x98, 0xa1, 0xa3, 0xdf, 0xdc, 0xf0, 0xa6, 0x16, 0xa6,
    0xab, 0x94, 0x29, 0xa8, 0xbb, 0x24, 0x0c, 0x2d, 0x5c, 0x6c, 0x31, 0x5c,
    0x19, 0x18, 0x81, 0xfb, 0x44, 0x92, 0x65, 0x28, 0x2d, 0xd2, 0xc0, 0x2c,
    0x60, 0x33, 0xcd, 0x6c, 0x54, 0x17, 0xb1, 0xab, 0x52, 0x0b, 0x8e, 0xe2,
    0x36, 0xe8, 0xae, 0x24, 0xae, 0xc0, 0x4c, 0x4d, 0x55, 0xfa, 0xaa, 0xbf,
    0x05, 0x0c, 0x10, 0x9e, 0x5f, 0xa4, 0xdc, 0x1a, 0x6d, 0x02, 0x7f, 0x46,
    0xf9, 0x9a, 0x45, 0x21, 0x3d, 0xab, 0x3a, 0xf4, 0xe2, 0x19, 0x5e, 0x6a,
    0x89, 0x62, 0xd1, 0x89, 0xdc, 0x19, 0xce, 0x58, 0xdf, 0x13, 0x26, 0x2e,
    0x10, 0xed, 0xe5, 0xd3, 0xf0, 0x24, 0x4e, 0x25, 0xf3, 0xf3, 0xb5, 0xd5,
    0x9d, 0xd6, 0xbf, 0xeb, 0xa0, 0x4a, 0xa7, 0x3a, 0x98, 0x04, 0x3b, 0x24,
    0x81, 0x08, 0x46, 0x52, 0x21, 0x21, 0x9e, 0xf1, 0xb3, 0xd6, 0xab, 0x90,
    0x5d, 0xb9, 0x12, 0x7a, 0x38, 0x22, 0xd2, 0x28, 0x30, 0x1a, 0xb9, 0xfc,
    0xfe, 0xbb, 0x63, 0xe0, 0xaa, 0xa5, 0xbb, 0xc2, 0x64, 0x1b, 0x31, 0xd7,
    0xc4, 0x23, 0xed, 0x45, 0xbb, 0xc4, 0xa5, 0x75, 0xdc, 0xe8, 0xc6, 0x49,
    0x14, 0x09, 0x7f, 0x2d, 0x63, 0xcd, 0xd2, 0xf1, 0x02, 0xeb, 0x18, 0x07,
    0x46, 0xd4, 0xaa, 0x2c, 0xf4, 0xff, 0x9b, 0x44, 0xed, 0x25, 0x08, 0x2d,
    0x3e, 0x23, 0xba, 0x30, 0xd4, 0x22, 0xc3, 0xd7, 0x37, 0xaa, 0x3d, 0x46,
    0x01, 0xb7, 0x40, 0xf5, 0x01, 0x91, 0xdc, 0xeb, 0x07, 0xc7, 0x6b, 0x48,
    0x7f, 0xab, 0x42, 0x00, 0x54, 0x30, 0xeb, 0xb1, 0x3f, 0x37, 0xdb, 0x4f,
    0x15, 0xa0, 0x48, 0xd5, 0x20, 0xd4, 0x4c, 0x05, 0xe6, 0x2c, 0x54, 0x66,
    0xaf, 0x9b, 0x81, 0x4c, 0xe1, 0xcf, 0xea, 0xc1, 0x82, 0xab, 0x21, 0xff,
    0xb5, 0x39, 0xfe, 0x6a, 0xb1, 0x06, 0x0b, 0x8c, 0xc1, 0x4a, 0x6f, 0xb9,
    0xcf, 0x01, 0xfb, 0x59, 0x44, 0x67, 0xd6, 0x63, 0x01, 0xc8, 0x36, 0xff,
    0x9b, 0x41, 0x2a, 0xe7, 0x72, 0xab, 0x1e, 0xcd, 0x87, 0xf1, 0xee, 0x4b,
    0x55, 0x3f, 0xf2, 0xb7, 0x4b, 0xaf, 0xb8, 0x42, 0x99, 0x7f, 0x0f, 0x37,
    0x25, 0xee, 0x33, 0x39, 0xfa, 0x5e, 0xa0, 0x55, 0xde, 0x24, 0xa4, 0xea,
    0xd2, 0xcb, 0x52, 0x26, 0xf2, 0x0c, 0x63, 0x01, 0xe6, 0x8c, 0xae, 0x23,
    0x46, 0x14, 0x34, 0x21, 0xbd, 0x2b, 0xa4, 0xfe, 0xd6, 0x5c, 0xbd, 0x7f,
    0xcc, 0x26, 0xed, 0x48, 0x46, 0x46, 0x1c, 0x69, 0x1d, 0xb2, 0xa0, 0xa1,
    0xb8, 0xef, 0xed, 0xef, 0x2a, 0xce, 0x55, 0xac, 0xea, 0xb8, 0x49, 0xd2,
    0xa1, 0x98, 0xb8, 0x58, 0xb7, 0x2d, 0x2e, 0xd9, 0xf6, 0x2a, 0x0d, 0xa2,
    0x4a, 0xb0, 0xef, 0xe1, 0xf0, 0x58, 0xe1, 0xd9, 0xa1, 0x3c, 0x60, 0xf9,
    0x1d, 0x83, 0x68, 0xb9, 0xc4, 0xcb, 0x04, 0xe6, 0x27, 0xd8, 0xe7, 0x90,
    0xff, 0xf3, 0xfd, 0x5d, 0x84, 0x2d, 0xbc, 0x15, 0xf9, 0xef, 0xc8, 0x90,
    0x7f, 0x27, 0x3f, 0x6b, 0xb4, 0x51, 0x7d, 0x17, 0xdf, 0x17, 0xda, 0xe4,
    0xe4, 0x1a, 0x48, 0xd4, 0x18, 0xaa, 0x25, 0x1a, 0x38, 0x56, 0x63, 0x11,
    0x06, 0x31, 0xc5, 0x16, 0x04, 0x3d, 0x35, 0x47, 0x43, 0x5d, 0x44, 0x31,
    0xeb, 0xb3, 0x63, 0xcf, 0xfa, 0x00, 0x2c, 0xed, 0xbb, 0x7f, 0x20, 0x2a,
    0xc8, 0x35, 0x60, 0x20, 0x57, 0xf7, 0x69, 0xc2, 0x1d, 0xf1, 0x26, 0xad,
    0x42, 0x32, 0xf9, 0x7f, 0x41, 0x0e, 0xf8, 0x44, 0x21, 0xe1, 0x44, 0x00,
    0x41, 0x48, 0xa4, 0xe2, 0xd5, 0xeb, 0xf2, 0xd4, 0x32, 0x15, 0xf4, 0x2b,
    0x5b, 0xf0, 0x85, 0xed, 0xfe, 0x98, 0x5d, 0x11, 0xc9, 0x04, 0xa1, 0x0a,
    0x50, 0xe3, 0xcb, 0x0a, 0xe2, 0xfa, 0x94, 0x03, 0xe5, 0x43, 0xca, 0x6c,
    0xab, 0xd3, 0xdb, 0x1f, 0x81, 0x0a, 0x08, 0xe6, 0xb3, 0x4d, 0x36, 0x60,
    0xe9, 0x1d, 0xad, 0xcc, 0xc0, 0x3b, 0x6a, 0x4e, 0x3e, 0xf5, 0xaf, 0x42,
    0xa4, 0x63, 0xef, 0x0f, 0x0b, 0xde, 0xc7, 0xeb, 0xe0, 0x34, 0x2f, 0x9d,
    0x1f, 0xc7, 0xe5, 0xc2, 0xf7, 0x2c, 0x3a, 0xfd, 0x34, 0x18, 0xd8, 0xaf,
    0x38, 0xae, 0x61, 0x04, 0x34, 0x22, 0xed, 0xc1, 0xd2, 0xb2, 0xfe, 0x81,
    0x44, 0xd9, 0x3f, 0x09, 0x29, 0x01, 0x50, 0xb2, 0x49, 0xcc, 0x3e, 0xb5,
    0x45, 0xf9, 0x11, 0x23, 0xd2, 0xa2, 0xb5, 0xfe, 0xc9, 0x2c, 0x6f, 0x5a,
    0x31, 0xfa, 0x1c, 0xac, 0xbf, 0x9d, 0xc0, 0xe3, 0xe9, 0xe6, 0x20, 0x49,
    0x81, 0xff, 0x48, 0xf6, 0x1a, 0x03, 0xd6, 0xd4, 0x2a, 0x50, 0x11, 0x48,
    0x0e, 0xe9, 0xf7, 0x4b, 0xae, 0x40, 0xd2, 0x1f, 0x89, 0x97, 0xbe, 0x08,
    0xe1, 0x49, 0xb7, 0xd7, 0x32, 0x50, 0xff, 0x2f, 0xf1, 0x68, 0x59, 0x49,
    0x8f, 0xaa, 0xa6, 0xcb, 0xe4, 0xc0, 0x3d, 0x31, 0xd6, 0xe6, 0x89, 0x4c,
    0xcc, 0xb9, 0x19, 0xad, 0x11, 0x42, 0xe0, 0x46, 0x9f, 0xe7, 0xe3, 0x33,
    0x45, 0xde, 0x05, 0x39, 0x6f, 0xbd, 0xd4, 0xce, 0x66, 0xe3, 0x67, 0x47,
    0xdd, 0x3c, 0x28, 0x38, 0x44, 0x2a, 0x58, 0x32, 0xf3, 0x28, 0x03, 0xd1,
    0x7f, 0xde, 0x54, 0xe2, 0xd1, 0x47, 0xc1, 0xab, 0x2e, 0x41, 0xce, 0x14,
    0x9b, 0xa2, 0x43, 0x88, 0x1f, 0x38, 0xa9, 0x4e, 0xd8, 0x10, 0xb3, 0xb7,
    0xbd, 0xf7, 0x4e, 0x4a, 0x46, 0x51, 0xc0, 0x99, 0xab, 0x50, 0x04, 0x24,
    0x1a, 0xc2, 0x29, 0xb7, 0x05, 0x0a, 0x04, 0x21, 0xd4, 0x60, 0xfb, 0x9d,
    0x1f, 0x81, 0x5a, 0x97, 0x6e, 0xde, 0x16, 0xb5, 0xf7, 0xf5, 0x0a, 0xaf,
    0xb6, 0xfb, 0xff, 0xff, 0x04, 0x00, 0x00, 0x00, 0x80, 0x00, 0x00, 0x00,
    0x44, 0x31, 0x00, 0x00, 0x8d, 0x21, 0x00, 0x00, 0x10, 0xbf, 0xff, 0xff,
    0x50, 0xaa, 0xff, 0xff, 0x55, 0xd6, 0xff, 0xff, 0x88, 0x3f, 0x00, 0x00,
    0x82, 0x30, 0x00, 0x00, 0xf9, 0x1a, 0x00, 0x00, 0x03, 0xec, 0xff, 0xff,
    0x1d, 0x4c, 0x00, 0x00, 0xa3, 0x3a, 0x00, 0x00, 0x17, 0x4d, 0x00, 0x00,
    0x4e, 0xfb, 0xff, 0xff, 0x05, 0x07, 0x00, 0x00, 0x0b, 0x4c, 0x00, 0x00,
    0x8e, 0x15, 0x00, 0x00, 0xce, 0x32, 0x00, 0x00, 0x30, 0xd6, 0xff, 0xff,
    0x38, 0x64, 0x00, 0x00, 0x46, 0xfa, 0xff, 0xff, 0xef, 0xe3, 0xff, 0xff,
    0x36, 0x1f, 0x00, 0x00, 0xe3, 0xfa, 0xff, 0xff, 0xe2, 0x10, 0x00, 0x00,
    0xce, 0x11, 0x00, 0x00, 0xdc, 0x90, 0xff, 0xff, 0xe0, 0xeb, 0xff, 0xff,
    0xac, 0x0f, 0x00, 0x00, 0x8c, 0x18, 0x00, 0x00, 0xe1, 0x26, 0x00, 0x00,
    0xb2, 0xbf, 0xff, 0xff, 0x58, 0x2e, 0x00, 0x00, 0x42, 0xfc, 0xff, 0xff,
    0x04, 0x00, 0x00, 0x00, 0x00, 0x02, 0x00, 0x00, 0x38, 0x02, 0x81, 0xe0,
    0x52, 0x20, 0xe7, 0x36, 0x0b, 0x33, 0x09, 0x8e, 0xf8, 0x17, 0xb8, 0x39,
    0x4a, 0x09, 0x21, 0xc5, 0xbc, 0x4a, 0xf6, 0x0c, 0x61, 0xa1, 0x47, 0x67,
    0xb4, 0x61, 0x9a, 0x24, 0x37, 0x56, 0x6a, 0x02, 0x9e, 0xfb, 0xe4, 0xb3,
    0x62, 0x7a, 0xd0, 0x78, 0x0e, 0xb9, 0xe1, 0x7f, 0x4a, 0x90, 0x55, 0x9b,
    0x24, 0xbc, 0x45, 0xa9, 0x7b, 0x3c, 0xc0, 0x17, 0x27, 0xb4, 0x0b, 0x5a,
    0x2a, 0x4e, 0x4f, 0xc2, 0xd0, 0x18, 0xbb, 0xb4, 0x51, 0x24, 0x58, 0x27,
    0xc3, 0xcc, 0x7f, 0x1c, 0xf5, 0xcc, 0x20, 0xb9, 0xd8, 0xd9, 0x14, 0x56,
    0x4c, 0xda, 0x58, 0x5b, 0x21, 0x3f, 0x37, 0xfa, 0x1c, 0x7f, 0xce, 0x9d,
    0xc4, 0x22, 0x54, 0x99, 0x30, 0x56, 0xf8, 0xf9, 0xe6, 0x79, 0x37, 0x2d,
    0x40, 0xad, 0x5d, 0xc3, 0xb3, 0x46, 0x79, 0x63, 0x21, 0xf0, 0xde, 0x61,
    0x9f, 0x74, 0x64, 0x77, 0xad, 0x0c, 0x36, 0x93, 0xf3, 0xf2, 0xd8, 0xc7,
    0xac, 0x6d, 0x62, 0x55, 0x93, 0xce, 0x0c, 0x9f, 0x61, 0x14, 0x5b, 0x4f,
    0x93, 0x09, 0x52, 0x81, 0xfe, 0xf2, 0xda, 0xaf, 0xb5, 0x26, 0xc0, 0x9a,
    0x5b, 0x03, 0x55, 0xf3, 0xf3, 0x31, 0xba, 0x5d, 0x5b, 0x7d, 0xe3, 0x75,
    0xf9, 0xe1, 0xf3, 0xa8, 0x19, 0xbf, 0xec, 0x4f, 0x9c, 0xa6, 0x3d, 0xae,
    0x71, 0xd4, 0x8b, 0xa9, 0x10, 0x81, 0xbc, 0x1b, 0x31, 0x59, 0x3f, 0xee,
    0x4d, 0x08, 0xa7, 0xf2, 0x78, 0x82, 0x78, 0xfb, 0x45, 0xb8, 0x14, 0x99,
    0x0a, 0xc1, 0xb1, 0x01, 0x86, 0x2e, 0x57, 0x91, 0xec, 0xc2, 0x47, 0x29,
    0x85, 0x63, 0x81, 0xad, 0x5b, 0x94, 0x81, 0x10, 0x06, 0x41, 0x61, 0xe2,
    0x2b, 0x3a, 0xad, 0x9f, 0xfd, 0xe6, 0x89, 0x32, 0x83, 0x9e, 0x41, 0x22,
    0xe5, 0xd2, 0xc5, 0x59, 0x26, 0x1f, 0xc7, 0x9b, 0xe7, 0xc2, 0x4e, 0x25,
    0x78, 0xc8, 0xf2, 0xca, 0x42, 0x74, 0x15, 0x34, 0x56, 0x0f, 0xb3, 0xad,
    0xf3, 0xbb, 0xe4, 0x7e, 0xd0, 0xdd, 0x7f, 0x0e, 0x98, 0x12, 0xf6, 0x2b,
    0x41, 0x33, 0x16, 0xd8, 0xf4, 0x58, 0x25, 0x4e, 0x5e, 0x5a, 0x45, 0x46,
    0xc7, 0xda, 0x5c, 0xec, 0x58, 0x3c, 0xb6, 0x07, 0xa1, 0x3b, 0x4c, 0x3a,
    0xc1, 0x03, 0x7f, 0x10, 0xf3, 0x27, 0xf0, 0x5a, 0xc6, 0xde, 0xb9, 0xc0,
    0xfe, 0x44, 0xf4, 0x22, 0xc7, 0x55, 0xd1, 0x3d, 0x27, 0x02, 0xf1, 0x15,
    0xc9, 0xed, 0x01, 0xe5, 0x74, 0x7f, 0x1a, 0x8a, 0x68, 0x60, 0x0e, 0xf2,
    0x2e, 0x04, 0x5f, 0x2d, 0x3d, 0xa7, 0x70, 0xec, 0xd1, 0x69, 0x4c, 0x04,
    0x10, 0x0a, 0x43, 0xab, 0xcf, 0xe6, 0x9c, 0x71, 0xb6, 0x50, 0x5d, 0xa5,
    0xbb, 0xe7, 0xcd, 0x0f, 0x61, 0x01, 0xa3, 0x43, 0xe6, 0x7f, 0xb7, 0x0f,
    0xb6, 0xa7, 0x51, 0xcf, 0x73, 0xa1, 0x49, 0x05, 0x9d, 0x00, 0xa4, 0x0e,
    0x3c, 0x81, 0x4c, 0x5f, 0xdc, 0xa1, 0x2a, 0xaf, 0x98, 0x3d, 0xb2, 0x91,
    0x4f, 0x2e, 0xa7, 0xfe, 0x3e, 0x58, 0xea, 0xe0, 0x2a, 0x01, 0xfa, 0x06,
    0x46, 0x37, 0x49, 0x71, 0x3c, 0x04, 0x5a, 0x07, 0xfc, 0xed, 0x43, 0x08,
    0xdf, 0x78, 0xd6, 0x41, 0xfb, 0x44, 0x22, 0xcb, 0x36, 0xc4, 0x7f, 0xf6,
    0xba, 0x3d, 0x33, 0xd1, 0xd9, 0x36, 0x12, 0x16, 0xf0, 0x02, 0xd0, 0xed,
    0x13, 0x50, 0xd0, 0xcd, 0x36, 0x68, 0x77, 0x5a, 0x50, 0x7c, 0xe6, 0xe6,
    0x69, 0x50, 0x29, 0x57, 0x33, 0xd7, 0x4d, 0xaf, 0x62, 0x33, 0x2a, 0x0e,
    0xca, 0xf6, 0x25, 0xfa, 0x72, 0x7f, 0xfb, 0xb9, 0x2b, 0xd4, 0x4a, 0x12,
    0x49, 0x9a, 0x31, 0x41, 0x24, 0x89, 0xb4, 0x15, 0x28, 0x43, 0x81, 0xa8,
    0xb4, 0x46, 0xd3, 0x24, 0x3f, 0x07, 0x41, 0x4f, 0x0e, 0xb0, 0x33, 0xdb,
    0x42, 0xa7, 0x32, 0x0d, 0x4e, 0xfe, 0xff, 0xff, 0x04, 0x00, 0x00, 0x00,
    0x40, 0x00, 0x00, 0x00, 0xf5, 0xfb, 0xff, 0xff, 0x88, 0x08, 0x00, 0x00,
    0xc2, 0x05, 0x00, 0x00, 0xfb, 0x06, 0x00, 0x00, 0x58, 0xfe, 0xff, 0xff,
    0x5c, 0xff, 0xff, 0xff, 0x8d, 0xfe, 0xff, 0xff, 0xf2, 0xfc, 0xff, 0xff,
    0xe0, 0x04, 0x00, 0x00, 0x80, 0x04, 0x00, 0x00, 0x72, 0x05, 0x00, 0x00,
    0xeb, 0x06, 0x00, 0x00, 0x09, 0xfe, 0xff, 0xff, 0xc8, 0x04, 0x00, 0x00,
    0xe8, 0x07, 0x00, 0x00, 0x0c, 0xfa, 0xff, 0xff, 0x9a, 0xfe, 0xff, 0xff,
    0x04, 0x00, 0x00, 0x00, 0x80, 0x00, 0x00, 0x00, 0xe7, 0x7f, 0x58, 0x67,
    0xb9, 0x4c, 0xc5, 0x48, 0x49, 0xfc, 0x3b, 0xe8, 0xa9, 0x6a, 0x0b, 0xc4,
    0xdd, 0x78, 0xf4, 0xdc, 0x35, 0x7f, 0x91, 0x69, 0x0e, 0xd6, 0xa6, 0x10,
    0xe9, 0xe0, 0xfc, 0x10, 0x9d, 0x2d, 0x2b, 0xe2, 0xe0, 0xdf, 0xac, 0x50,
    0x81, 0xb7, 0x03, 0x5a, 0x11, 0xfe, 0x44, 0x46, 0xe8, 0x75, 0x38, 0x70,
    0xc8, 0xad, 0xe8, 0x8e, 0x5f, 0x52, 0xce, 0x17, 0xca, 0x69, 0x7f, 0xa9,
    0x07, 0xac, 0x81, 0x13, 0xc7, 0xfd, 0x09, 0x93, 0xfb, 0xdc, 0x43, 0x5a,
    0xcb, 0x95, 0x30, 0x4f, 0xca, 0xe1, 0xbe, 0x76, 0xa4, 0x05, 0x2f, 0xc9,
    0xe9, 0xde, 0x14, 0x8e, 0x31, 0x8a, 0x81, 0x68, 0xab, 0x03, 0x0b, 0x04,
    0x34, 0xf1, 0xae, 0x22, 0xfd, 0x86, 0x7f, 0xe5, 0x72, 0xf0, 0xe8, 0x74,
    0x83, 0x81, 0xb1, 0x96, 0xe1, 0xb2, 0xf6, 0xe1, 0xaf, 0x01, 0xdd, 0x8f,
    0xfa, 0x91, 0x66, 0x20, 0x26, 0xff, 0xff, 0xff, 0x04, 0x00, 0x00, 0x00,
    0x20, 0x00, 0x00, 0x00, 0xb3, 0x00, 0x00, 0x00, 0xd7, 0xff, 0xff, 0xff,
    0xfb, 0x04, 0x00, 0x00, 0x2e, 0x01, 0x00, 0x00, 0x78, 0x04, 0x00, 0x00,
    0xa4, 0xfc, 0xff, 0xff, 0x24, 0x04, 0x00, 0x00, 0x2e, 0x09, 0x00, 0x00,
    0x52, 0xff, 0xff, 0xff, 0x04, 0x00, 0x00, 0x00, 0x08, 0x00, 0x00, 0x00,
    0x64, 0x0b, 0x82, 0x73, 0x81, 0x53, 0xb0, 0xb1, 0x66, 0xff, 0xff, 0xff,
    0x04, 0x00, 0x00, 0x00, 0x04, 0x00, 0x00, 0x00, 0xe1, 0xfe, 0xff, 0xff,
    0x76, 0xff, 0xff, 0xff, 0x04, 0x00, 0x00, 0x00, 0x0c, 0x00, 0x00, 0x00,
    0xff, 0xff, 0xff, 0xff, 0x0c, 0x00, 0x00, 0x00, 0x20, 0x00, 0x00, 0x00,
    0x8e, 0xff, 0xff, 0xff, 0x04, 0x00, 0x00, 0x00, 0x0c, 0x00, 0x00, 0x00,
    0xff, 0xff, 0xff, 0xff, 0x0c, 0x00, 0x00, 0x00, 0x10, 0x00, 0x00, 0x00,
    0xa6, 0xff, 0xff, 0xff, 0x04, 0x00, 0x00, 0x00, 0x0c, 0x00, 0x00, 0x00,
    0xff, 0xff, 0xff, 0xff, 0x19, 0x00, 0x00, 0x00, 0x10, 0x00, 0x00, 0x00,
    0xbe, 0xff, 0xff, 0xff, 0x04, 0x00, 0x00, 0x00, 0x0c, 0x00, 0x00, 0x00,
    0xff, 0xff, 0xff, 0xff, 0x19, 0x00, 0x00, 0x00, 0x08, 0x00, 0x00, 0x00,
    0xd6, 0xff, 0xff, 0xff, 0x04, 0x00, 0x00, 0x00, 0x04, 0x00, 0x00, 0x00,
    0x01, 0x00, 0x00, 0x00, 0xe6, 0xff, 0xff, 0xff, 0x04, 0x00, 0x00, 0x00,
    0x0c, 0x00, 0x00, 0x00, 0xff, 0xff, 0xff, 0xff, 0x32, 0x00, 0x00, 0x00,
    0x08, 0x00, 0x00, 0x00, 0x00, 0x00, 0x06, 0x00, 0x08, 0x00, 0x04, 0x00,
    0x06, 0x00, 0x00, 0x00, 0x04, 0x00, 0x00, 0x00, 0x04, 0x00, 0x00, 0x00,
    0xfd, 0xff, 0xff, 0xff, 0xf4, 0xdc, 0xff, 0xff, 0xf8, 0xdc, 0xff, 0xff,
    0x0f, 0x00, 0x00, 0x00, 0x4d, 0x4c, 0x49, 0x52, 0x20, 0x43, 0x6f, 0x6e,
    0x76, 0x65, 0x72, 0x74, 0x65, 0x64, 0x2e, 0x00, 0x01, 0x00, 0x00, 0x00,
    0x14, 0x00, 0x00, 0x00, 0x00, 0x00, 0x0e, 0x00, 0x18, 0x00, 0x14, 0x00,
    0x10, 0x00, 0x0c, 0x00, 0x08, 0x00, 0x04, 0x00, 0x0e, 0x00, 0x00, 0x00,
    0x14, 0x00, 0x00, 0x00, 0x1c, 0x00, 0x00, 0x00, 0x80, 0x04, 0x00, 0x00,
    0x84, 0x04, 0x00, 0x00, 0x88, 0x04, 0x00, 0x00, 0x04, 0x00, 0x00, 0x00,
    0x6d, 0x61, 0x69, 0x6e, 0x00, 0x00, 0x00, 0x00, 0x14, 0x00, 0x00, 0x00,
    0x38, 0x04, 0x00, 0x00, 0xd8, 0x03, 0x00, 0x00, 0xa0, 0x03, 0x00, 0x00,
    0x64, 0x03, 0x00, 0x00, 0x10, 0x03, 0x00, 0x00, 0xe8, 0x02, 0x00, 0x00,
    0xb8, 0x02, 0x00, 0x00, 0x74, 0x02, 0x00, 0x00, 0x4c, 0x02, 0x00, 0x00,
    0x1c, 0x02, 0x00, 0x00, 0xd8, 0x01, 0x00, 0x00, 0xb0, 0x01, 0x00, 0x00,
    0x80, 0x01, 0x00, 0x00, 0x3c, 0x01, 0x00, 0x00, 0x14, 0x01, 0x00, 0x00,
    0xe0, 0x00, 0x00, 0x00, 0x9c, 0x00, 0x00, 0x00, 0x60, 0x00, 0x00, 0x00,
    0x28, 0x00, 0x00, 0x00, 0x04, 0x00, 0x00, 0x00, 0xb2, 0xfc, 0xff, 0xff,
    0x0c, 0x00, 0x00, 0x00, 0x10, 0x00, 0x00, 0x00, 0x06, 0x00, 0x00, 0x00,
    0x01, 0x00, 0x00, 0x00, 0x27, 0x00, 0x00, 0x00, 0x01, 0x00, 0x00, 0x00,
    0x26, 0x00, 0x00, 0x00, 0xa2, 0xfc, 0xff, 0xff, 0x14, 0x00, 0x00, 0x00,
    0x00, 0x00, 0x00, 0x08, 0x10, 0x00, 0x00, 0x00, 0x14, 0x00, 0x00, 0x00,
    0x05, 0x00, 0x00, 0x00, 0xd8, 0xdd, 0xff, 0xff, 0x01, 0x00, 0x00, 0x00,
    0x26, 0x00, 0x00, 0x00, 0x03, 0x00, 0x00, 0x00, 0x25, 0x00, 0x00, 0x00,
    0x09, 0x00, 0x00, 0x00, 0x08, 0x00, 0x00, 0x00, 0xd6, 0xfc, 0xff, 0xff,
    0x14, 0x00, 0x00, 0x00, 0x00, 0x00, 0x00, 0x08, 0x14, 0x00, 0x00, 0x00,
    0x18, 0x00, 0x00, 0x00, 0x05, 0x00, 0x00, 0x00, 0xc6, 0xff, 0xff, 0xff,
    0x00, 0x00, 0x00, 0x01, 0x01, 0x00, 0x00, 0x00, 0x25, 0x00, 0x00, 0x00,
    0x03, 0x00, 0x00, 0x00, 0x24, 0x00, 0x00, 0x00, 0x0b, 0x00, 0x00, 0x00,
    0x0a, 0x00, 0x00, 0x00, 0x0e, 0xfd, 0xff, 0xff, 0x1c, 0x00, 0x00, 0x00,
    0x00, 0x00, 0x00, 0x08, 0x1c, 0x00, 0x00, 0x00, 0x20, 0x00, 0x00, 0x00,
    0x05, 0x00, 0x00, 0x00, 0x00, 0x00, 0x06, 0x00, 0x08, 0x00, 0x07, 0x00,
    0x06, 0x00, 0x00, 0x00, 0x00, 0x00, 0x00, 0x01, 0x01, 0x00, 0x00, 0x00,
    0x24, 0x00, 0x00, 0x00, 0x03, 0x00, 0x00, 0x00, 0x23, 0x00, 0x00, 0x00,
    0x0d, 0x00, 0x00, 0x00, 0x0c, 0x00, 0x00, 0x00, 0x4e, 0xfd, 0xff, 0xff,
    0x14, 0x00, 0x00, 0x00, 0x00, 0x00, 0x00, 0x1b, 0x10, 0x00, 0x00, 0x00,
    0x14, 0x00, 0x00, 0x00, 0x04, 0x00, 0x00, 0x00, 0x84, 0xde, 0xff, 0xff,
    0x01, 0x00, 0x00, 0x00, 0x23, 0x00, 0x00, 0x00, 0x02, 0x00, 0x00, 0x00,
    0x22, 0x00, 0x00, 0x00, 0x03, 0x00, 0x00, 0x00, 0xae, 0xfd, 0xff, 0xff,
    0x0c, 0x00, 0x00, 0x00, 0x10, 0x00, 0x00, 0x00, 0x02, 0x00, 0x00, 0x00,
    0x01, 0x00, 0x00, 0x00, 0x22, 0x00, 0x00, 0x00, 0x02, 0x00, 0x00, 0x00,
    0x21, 0x00, 0x00, 0x00, 0x07, 0x00, 0x00, 0x00, 0xa2, 0xfd, 0xff, 0xff,
    0x14, 0x00, 0x00, 0x00, 0x00, 0x00, 0x00, 0x01, 0x1c, 0x00, 0x00, 0x00,
    0x20, 0x00, 0x00, 0x00, 0x01, 0x00, 0x00, 0x00, 0x94, 0xfd, 0xff, 0xff,
    0x00, 0x00, 0x00, 0x01, 0x01, 0x00, 0x00, 0x00, 0x01, 0x00, 0x00, 0x00,
    0x01, 0x00, 0x00, 0x00, 0x21, 0x00, 0x00, 0x00, 0x03, 0x00, 0x00, 0x00,
    0x20, 0x00, 0x00, 0x00, 0x0f, 0x00, 0x00, 0x00, 0x0e, 0x00, 0x00, 0x00,
    0x86, 0xfd, 0xff, 0xff, 0x10, 0x00, 0x00, 0x00, 0x00, 0x00, 0x00, 0x34,
    0x0c, 0x00, 0x00, 0x00, 0x10, 0x00, 0x00, 0x00, 0x14, 0xdf, 0xff, 0xff,
    0x01, 0x00, 0x00, 0x00, 0x20, 0x00, 0x00, 0x00, 0x02, 0x00, 0x00, 0x00,
    0x1f, 0x00, 0x00, 0x00, 0x01, 0x00, 0x00, 0x00, 0x3e, 0xfe, 0xff, 0xff,
    0x0c, 0x00, 0x00, 0x00, 0x10, 0x00, 0x00, 0x00, 0x02, 0x00, 0x00, 0x00,
    0x01, 0x00, 0x00, 0x00, 0x1f, 0x00, 0x00, 0x00, 0x02, 0x00, 0x00, 0x00,
    0x1e, 0x00, 0x00, 0x00, 0x06, 0x00, 0x00, 0x00, 0x32, 0xfe, 0xff, 0xff,
    0x14, 0x00, 0x00, 0x00, 0x00, 0x00, 0x00, 0x05, 0x24, 0x00, 0x00, 0x00,
    0x28, 0x00, 0x00, 0x00, 0x03, 0x00, 0x00, 0x00, 0xde, 0xfe, 0xff, 0xff,
    0x01, 0x00, 0x00, 0x00, 0x02, 0x00, 0x00, 0x00, 0x01, 0x00, 0x00, 0x00,
    0x02, 0x00, 0x00, 0x00, 0x00, 0x00, 0x00, 0x01, 0x01, 0x00, 0x00, 0x00,
    0x1e, 0x00, 0x00, 0x00, 0x01, 0x00, 0x00, 0x00, 0x1d, 0x00, 0x00, 0x00,
    0x16, 0xfe, 0xff, 0xff, 0x10, 0x00, 0x00, 0x00, 0x00, 0x00, 0x00, 0x34,
    0x0c, 0x00, 0x00, 0x00, 0x10, 0x00, 0x00, 0x00, 0xa4, 0xdf, 0xff, 0xff,
    0x01, 0x00, 0x00, 0x00, 0x1d, 0x00, 0x00, 0x00, 0x02, 0x00, 0x00, 0x00,
    0x1c, 0x00, 0x00, 0x00, 0x03, 0x00, 0x00, 0x00, 0xce, 0xfe, 0xff, 0xff,
    0x0c, 0x00, 0x00, 0x00, 0x10, 0x00, 0x00, 0x00, 0x02, 0x00, 0x00, 0x00,
    0x01, 0x00, 0x00, 0x00, 0x1c, 0x00, 0x00, 0x00, 0x02, 0x00, 0x00, 0x00,
    0x1b, 0x00, 0x00, 0x00, 0x05, 0x00, 0x00, 0x00, 0xc2, 0xfe, 0xff, 0xff,
    0x14, 0x00, 0x00, 0x00, 0x00, 0x00, 0x00, 0x01, 0x1c, 0x00, 0x00, 0x00,
    0x20, 0x00, 0x00, 0x00, 0x01, 0x00, 0x00, 0x00, 0xb4, 0xfe, 0xff, 0xff,
    0x00, 0x00, 0x00, 0x01, 0x01, 0x00, 0x00, 0x00, 0x01, 0x00, 0x00, 0x00,
    0x01, 0x00, 0x00, 0x00, 0x1b, 0x00, 0x00, 0x00, 0x03, 0x00, 0x00, 0x00,
    0x1a, 0x00, 0x00, 0x00, 0x11, 0x00, 0x00, 0x00, 0x10, 0x00, 0x00, 0x00,
    0xa6, 0xfe, 0xff, 0xff, 0x10, 0x00, 0x00, 0x00, 0x00, 0x00, 0x00, 0x34,
    0x0c, 0x00, 0x00, 0x00, 0x10, 0x00, 0x00, 0x00, 0x34, 0xe0, 0xff, 0xff,
    0x01, 0x00, 0x00, 0x00, 0x1a, 0x00, 0x00, 0x00, 0x02, 0x00, 0x00, 0x00,
    0x19, 0x00, 0x00, 0x00, 0x01, 0x00, 0x00, 0x00, 0x5e, 0xff, 0xff, 0xff,
    0x0c, 0x00, 0x00, 0x00, 0x10, 0x00, 0x00, 0x00, 0x02, 0x00, 0x00, 0x00,
    0x01, 0x00, 0x00, 0x00, 0x19, 0x00, 0x00, 0x00, 0x02, 0x00, 0x00, 0x00,
    0x18, 0x00, 0x00, 0x00, 0x04, 0x00, 0x00, 0x00, 0x52, 0xff, 0xff, 0xff,
    0x24, 0x00, 0x00, 0x00, 0x00, 0x00, 0x00, 0x05, 0x34, 0x00, 0x00, 0x00,
    0x38, 0x00, 0x00, 0x00, 0x03, 0x00, 0x00, 0x00, 0x00, 0x00, 0x0e, 0x00,
    0x18, 0x00, 0x17, 0x00, 0x10, 0x00, 0x0c, 0x00, 0x08, 0x00, 0x04, 0x00,
    0x0e, 0x00, 0x00, 0x00, 0x01, 0x00, 0x00, 0x00, 0x02, 0x00, 0x00, 0x00,
    0x01, 0x00, 0x00, 0x00, 0x02, 0x00, 0x00, 0x00, 0x00, 0x00, 0x00, 0x01,
    0x01, 0x00, 0x00, 0x00, 0x18, 0x00, 0x00, 0x00, 0x01, 0x00, 0x00, 0x00,
    0x17, 0x00, 0x00, 0x00, 0x46, 0xff, 0xff, 0xff, 0x10, 0x00, 0x00, 0x00,
    0x00, 0x00, 0x00, 0x34, 0x0c, 0x00, 0x00, 0x00, 0x10, 0x00, 0x00, 0x00,
    0xd4, 0xe0, 0xff, 0xff, 0x01, 0x00, 0x00, 0x00, 0x17, 0x00, 0x00, 0x00,
    0x02, 0x00, 0x00, 0x00, 0x16, 0x00, 0x00, 0x00, 0x03, 0x00, 0x00, 0x00,
    0x00, 0x00, 0x0a, 0x00, 0x10, 0x00, 0x0c, 0x00, 0x08, 0x00, 0x04, 0x00,
    0x0a, 0x00, 0x00, 0x00, 0x0c, 0x00, 0x00, 0x00, 0x10, 0x00, 0x00, 0x00,
    0x02, 0x00, 0x00, 0x00, 0x01, 0x00, 0x00, 0x00, 0x16, 0x00, 0x00, 0x00,
    0x02, 0x00, 0x00, 0x00, 0x15, 0x00, 0x00, 0x00, 0x02, 0x00, 0x00, 0x00,
    0x00, 0x00, 0x0e, 0x00, 0x18, 0x00, 0x14, 0x00, 0x10, 0x00, 0x0c, 0x00,
    0x0b, 0x00, 0x04, 0x00, 0x0e, 0x00, 0x00, 0x00, 0x20, 0x00, 0x00, 0x00,
    0x00, 0x00, 0x00, 0x01, 0x28, 0x00, 0x00, 0x00, 0x2c, 0x00, 0x00, 0x00,
    0x01, 0x00, 0x00, 0x00, 0x0c, 0x00, 0x10, 0x00, 0x00, 0x00, 0x0c, 0x00,
    0x08, 0x00, 0x07, 0x00, 0x0c, 0x00, 0x00, 0x00, 0x00, 0x00, 0x00, 0x01,
    0x01, 0x00, 0x00, 0x00, 0x01, 0x00, 0x00, 0x00, 0x01, 0x00, 0x00, 0x00,
    0x15, 0x00, 0x00, 0x00, 0x03, 0x00, 0x00, 0x00, 0x14, 0x00, 0x00, 0x00,
    0x13, 0x00, 0x00, 0x00, 0x12, 0x00, 0x00, 0x00, 0x00, 0x00, 0x0e, 0x00,
    0x14, 0x00, 0x00, 0x00, 0x10, 0x00, 0x0c, 0x00, 0x0b, 0x00, 0x04, 0x00,
    0x0e, 0x00, 0x00, 0x00, 0x10, 0x00, 0x00, 0x00, 0x00, 0x00, 0x00, 0x34,
    0x0c, 0x00, 0x00, 0x00, 0x10, 0x00, 0x00, 0x00, 0x9c, 0xe1, 0xff, 0xff,
    0x01, 0x00, 0x00, 0x00, 0x14, 0x00, 0x00, 0x00, 0x02, 0x00, 0x00, 0x00,
    0x00, 0x00, 0x00, 0x00, 0x01, 0x00, 0x00, 0x00, 0x01, 0x00, 0x00, 0x00,
    0x27, 0x00, 0x00, 0x00, 0x01, 0x00, 0x00, 0x00, 0x00, 0x00, 0x00, 0x00,
    0x28, 0x00, 0x00, 0x00, 0x70, 0x1e, 0x00, 0x00, 0x18, 0x1e, 0x00, 0x00,
    0xc0, 0x1d, 0x00, 0x00, 0x84, 0x1d, 0x00, 0x00, 0x44, 0x1d, 0x00, 0x00,
    0x04, 0x1d, 0x00, 0x00, 0xc4, 0x1c, 0x00, 0x00, 0x84, 0x1c, 0x00, 0x00,
    0x20, 0x1c, 0x00, 0x00, 0xbc, 0x1b, 0x00, 0x00, 0x08, 0x1b, 0x00, 0x00,
    0x4c, 0x1a, 0x00, 0x00, 0x38, 0x19, 0x00, 0x00, 0x1c, 0x18, 0x00, 0x00,
    0x48, 0x16, 0x00, 0x00, 0x64, 0x14, 0x00, 0x00, 0x50, 0x13, 0x00, 0x00,
    0x2c, 0x12, 0x00, 0x00, 0x78, 0x11, 0x00, 0x00, 0xb4, 0x10, 0x00, 0x00,
    0x10, 0x10, 0x00, 0x00, 0xb4, 0x0e, 0x00, 0x00, 0x7c, 0x0d, 0x00, 0x00,
    0xd4, 0x0c, 0x00, 0x00, 0x38, 0x0c, 0x00, 0x00, 0xa0, 0x0b, 0x00, 0x00,
    0x00, 0x0b, 0x00, 0x00, 0x94, 0x09, 0x00, 0x00, 0x54, 0x08, 0x00, 0x00,
    0xac, 0x07, 0x00, 0x00, 0x10, 0x07, 0x00, 0x00, 0x70, 0x06, 0x00, 0x00,
    0xd0, 0x05, 0x00, 0x00, 0x64, 0x04, 0x00, 0x00, 0x24, 0x03, 0x00, 0x00,
    0x94, 0x02, 0x00, 0x00, 0xd8, 0x01, 0x00, 0x00, 0x1c, 0x01, 0x00, 0x00,
    0x80, 0x00, 0x00, 0x00, 0x04, 0x00, 0x00, 0x00, 0x46, 0xe2, 0xff, 0xff,
    0x00, 0x00, 0x00, 0x01, 0x18, 0x00, 0x00, 0x00, 0x20, 0x00, 0x00, 0x00,
    0x3c, 0x00, 0x00, 0x00, 0x28, 0x00, 0x00, 0x00, 0x00, 0x00, 0x00, 0x09,
    0x50, 0x00, 0x00, 0x00, 0x02, 0x00, 0x00, 0x00, 0xff, 0xff, 0xff, 0xff,
    0x01, 0x00, 0x00, 0x00, 0x2c, 0xe2, 0xff, 0xff, 0x08, 0x00, 0x00, 0x00,
    0x10, 0x00, 0x00, 0x00, 0x01, 0x00, 0x00, 0x00, 0x80, 0xff, 0xff, 0xff,
    0xff, 0xff, 0xff, 0xff, 0x01, 0x00, 0x00, 0x00, 0x00, 0x00, 0x80, 0x3b,
    0x1b, 0x00, 0x00, 0x00, 0x53, 0x74, 0x61, 0x74, 0x65, 0x66, 0x75, 0x6c,
    0x50, 0x61, 0x72, 0x74, 0x69, 0x74, 0x69, 0x6f, 0x6e, 0x65, 0x64, 0x43,
    0x61, 0x6c, 0x6c, 0x5f, 0x31, 0x3a, 0x30, 0x00, 0x02, 0x00, 0x00, 0x00,
    0x01, 0x00, 0x00, 0x00, 0x01, 0x00, 0x00, 0x00, 0xbe, 0xe2, 0xff, 0xff,
    0x00, 0x00, 0x00, 0x01, 0x18, 0x00, 0x00, 0x00, 0x20, 0x00, 0x00, 0x00,
    0x3c, 0x00, 0x00, 0x00, 0x27, 0x00, 0x00, 0x00, 0x00, 0x00, 0x00, 0x09,
    0x70, 0x00, 0x00, 0x00, 0x02, 0x00, 0x00, 0x00, 0xff, 0xff, 0xff, 0xff,
    0x01, 0x00, 0x00, 0x00, 0xa4, 0xe2, 0xff, 0xff, 0x08, 0x00, 0x00, 0x00,
    0x10, 0x00, 0x00, 0x00, 0x01, 0x00, 0x00, 0x00, 0xf6, 0xff, 0xff, 0xff,
    0xff, 0xff, 0xff, 0xff, 0x01, 0x00, 0x00, 0x00, 0xa0, 0x23, 0x87, 0x3d,
    0x38, 0x00, 0x00, 0x00, 0x73, 0x65, 0x71, 0x75, 0x65, 0x6e, 0x74, 0x69,
    0x61, 0x6c, 0x5f, 0x31, 0x2f, 0x64, 0x65, 0x6e, 0x73, 0x65, 0x5f, 0x32,
    0x5f, 0x31, 0x2f, 0x4d, 0x61, 0x74, 0x4d, 0x75, 0x6c, 0x3b, 0x73, 0x65,
    0x71, 0x75, 0x65, 0x6e, 0x74, 0x69, 0x61, 0x6c, 0x5f, 0x31, 0x2f, 0x64,
    0x65, 0x6e, 0x73, 0x65, 0x5f, 0x32, 0x5f, 0x31, 0x2f, 0x41, 0x64, 0x64,
    0x00, 0x00, 0x00, 0x00, 0x02, 0x00, 0x00, 0x00, 0x01, 0x00, 0x00, 0x00,
    0x01, 0x00, 0x00, 0x00, 0x56, 0xe3, 0xff, 0xff, 0x00, 0x00, 0x00, 0x01,
    0x18, 0x00, 0x00, 0x00, 0x20, 0x00, 0x00, 0x00, 0x3c, 0x00, 0x00, 0x00,
    0x26, 0x00, 0x00, 0x00, 0x00, 0x00, 0x00, 0x09, 0x90, 0x00, 0x00, 0x00,
    0x02, 0x00, 0x00, 0x00, 0xff, 0xff, 0xff, 0xff, 0x08, 0x00, 0x00, 0x00,
    0x3c, 0xe3, 0xff, 0xff, 0x08, 0x00, 0x00, 0x00, 0x10, 0x00, 0x00, 0x00,
    0x01, 0x00, 0x00, 0x00, 0x80, 0xff, 0xff, 0xff, 0xff, 0xff, 0xff, 0xff,
    0x01, 0x00, 0x00, 0x00, 0x48, 0xc3, 0xcc, 0x3c, 0x58, 0x00, 0x00, 0x00,
    0x73, 0x65, 0x71, 0x75, 0x65, 0x6e, 0x74, 0x69, 0x61, 0x6c, 0x5f, 0x31,
    0x2f, 0x64, 0x65, 0x6e, 0x73, 0x65, 0x5f, 0x31, 0x5f, 0x32, 0x2f, 0x4d,
    0x61, 0x74, 0x4d, 0x75, 0x6c, 0x3b, 0x73, 0x65, 0x71, 0x75, 0x65, 0x6e,
    0x74, 0x69, 0x61, 0x6c, 0x5f, 0x31, 0x2f, 0x72, 0x65, 0x5f, 0x6c, 0x75,
    0x5f, 0x34, 0x5f, 0x31, 0x2f, 0x52, 0x65, 0x6c, 0x75, 0x3b, 0x73, 0x65,
    0x71, 0x75, 0x65, 0x6e, 0x74, 0x69, 0x61, 0x6c, 0x5f, 0x31, 0x2f, 0x64,
    0x65, 0x6e, 0x73, 0x65, 0x5f, 0x31, 0x5f, 0x32, 0x2f, 0x42, 0x69, 0x61,
    0x73, 0x41, 0x64, 0x64, 0x00, 0x00, 0x00, 0x00, 0x02, 0x00, 0x00, 0x00,
    0x01, 0x00, 0x00, 0x00, 0x08, 0x00, 0x00, 0x00, 0x0e, 0xe4, 0xff, 0xff,
    0x00, 0x00, 0x00, 0x01, 0x18, 0x00, 0x00, 0x00, 0x20, 0x00, 0x00, 0x00,
    0x40, 0x00, 0x00, 0x00, 0x25, 0x00, 0x00, 0x00, 0x00, 0x00, 0x00, 0x09,
    0x90, 0x00, 0x00, 0x00, 0x02, 0x00, 0x00, 0x00, 0xff, 0xff, 0xff, 0xff,
    0x10, 0x00, 0x00, 0x00, 0xf4, 0xe3, 0xff, 0xff, 0x08, 0x00, 0x00, 0x00,
    0x14, 0x00, 0x00, 0x00, 0x01, 0x00, 0x00, 0x00, 0x80, 0xff, 0xff, 0xff,
    0xff, 0xff, 0xff, 0xff, 0x00, 0x00, 0x00, 0x00, 0x01, 0x00, 0x00, 0x00,
    0x10, 0xde, 0x9e, 0x3c, 0x54, 0x00, 0x00, 0x00, 0x73, 0x65, 0x71, 0x75,
    0x65, 0x6e, 0x74, 0x69, 0x61, 0x6c, 0x5f, 0x31, 0x2f, 0x64, 0x65, 0x6e,
    0x73, 0x65, 0x5f, 0x31, 0x2f, 0x4d, 0x61, 0x74, 0x4d, 0x75, 0x6c, 0x3b,
    0x73, 0x65, 0x71, 0x75, 0x65, 0x6e, 0x74, 0x69, 0x61, 0x6c, 0x5f, 0x31,
    0x2f, 0x72, 0x65, 0x5f, 0x6c, 0x75, 0x5f, 0x33, 0x5f, 0x31, 0x2f, 0x52,
    0x65, 0x6c, 0x75, 0x3b, 0x73, 0x65, 0x71, 0x75, 0x65, 0x6e, 0x74, 0x69,
    0x61, 0x6c, 0x5f, 0x31, 0x2f, 0x64, 0x65, 0x6e, 0x73, 0x65, 0x5f, 0x31,
    0x2f, 0x42, 0x69, 0x61, 0x73, 0x41, 0x64, 0x64, 0x00, 0x00, 0x00, 0x00,
    0x02, 0x00, 0x00, 0x00, 0x01, 0x00, 0x00, 0x00, 0x10, 0x00, 0x00, 0x00,
    0xc6, 0xe4, 0xff, 0xff, 0x00, 0x00, 0x00, 0x01, 0x18, 0x00, 0x00, 0x00,
    0x20, 0x00, 0x00, 0x00, 0x3c, 0x00, 0x00, 0x00, 0x24, 0x00, 0x00, 0x00,
    0x00, 0x00, 0x00, 0x09, 0x64, 0x00, 0x00, 0x00, 0x02, 0x00, 0x00, 0x00,
    0xff, 0xff, 0xff, 0xff, 0x20, 0x00, 0x00, 0x00, 0xac, 0xe4, 0xff, 0xff,
    0x08, 0x00, 0x00, 0x00, 0x10, 0x00, 0x00, 0x00, 0x01, 0x00, 0x00, 0x00,
    0x80, 0xff, 0xff, 0xff, 0xff, 0xff, 0xff, 0xff, 0x01, 0x00, 0x00, 0x00,
    0x7f, 0x0c, 0x2c, 0x3c, 0x2c, 0x00, 0x00, 0x00, 0x73, 0x65, 0x71, 0x75,
    0x65, 0x6e, 0x74, 0x69, 0x61, 0x6c, 0x5f, 0x31, 0x2f, 0x67, 0x6c, 0x6f,
    0x62, 0x61, 0x6c, 0x5f, 0x61, 0x76, 0x65, 0x72, 0x61, 0x67, 0x65, 0x5f,
    0x70, 0x6f, 0x6f, 0x6c, 0x69, 0x6e, 0x67, 0x31, 0x64, 0x5f, 0x31, 0x2f,
    0x4d, 0x65, 0x61, 0x6e, 0x00, 0x00, 0x00, 0x00, 0x02, 0x00, 0x00, 0x00,
    0x01, 0x00, 0x00, 0x00, 0x20, 0x00, 0x00, 0x00, 0x52, 0xe5, 0xff, 0xff,
    0x00, 0x00, 0x00, 0x01, 0x18, 0x00, 0x00, 0x00, 0x24, 0x00, 0x00, 0x00,
    0x44, 0x00, 0x00, 0x00, 0x23, 0x00, 0x00, 0x00, 0x00, 0x00, 0x00, 0x09,
    0x10, 0x01, 0x00, 0x00, 0x03, 0x00, 0x00, 0x00, 0xff, 0xff, 0xff, 0xff,
    0x0c, 0x00, 0x00, 0x00, 0x20, 0x00, 0x00, 0x00, 0x3c, 0xe5, 0xff, 0xff,
    0x08, 0x00, 0x00, 0x00, 0x14, 0x00, 0x00, 0x00, 0x01, 0x00, 0x00, 0x00,
    0x80, 0xff, 0xff, 0xff, 0xff, 0xff, 0xff, 0xff, 0x00, 0x00, 0x00, 0x00,
    0x01, 0x00, 0x00, 0x00, 0x25, 0xfa, 0xc7, 0x3c, 0xd2, 0x00, 0x00, 0x00,
    0x73, 0x65, 0x71, 0x75, 0x65, 0x6e, 0x74, 0x69, 0x61, 0x6c, 0x5f, 0x31,
    0x2f, 0x72, 0x65, 0x5f, 0x6c, 0x75, 0x5f, 0x32, 0x5f, 0x31, 0x2f, 0x52,
    0x65, 0x6c, 0x75, 0x3b, 0x73, 0x65, 0x71, 0x75, 0x65, 0x6e, 0x74, 0x69,
    0x61, 0x6c, 0x5f, 0x31, 0x2f, 0x62, 0x61, 0x74, 0x63, 0x68, 0x5f, 0x6e,
    0x6f, 0x72, 0x6d, 0x61, 0x6c, 0x69, 0x7a, 0x61, 0x74, 0x69, 0x6f, 0x6e,
    0x5f, 0x32, 0x5f, 0x31, 0x2f, 0x62, 0x61, 0x74, 0x63, 0x68, 0x6e, 0x6f,
    0x72, 0x6d, 0x2f, 0x61, 0x64, 0x64, 0x5f, 0x31, 0x3b, 0x73, 0x65, 0x71,
    0x75, 0x65, 0x6e, 0x74, 0x69, 0x61, 0x6c, 0x5f, 0x31, 0x2f, 0x63, 0x6f,
    0x6e, 0x76, 0x31, 0x64, 0x5f, 0x32, 0x5f, 0x31, 0x2f, 0x63, 0x6f, 0x6e,
    0x76, 0x6f, 0x6c, 0x75, 0x74, 0x69, 0x6f, 0x6e, 0x2f, 0x53, 0x71, 0x75,
    0x65, 0x65, 0x7a, 0x65, 0x3b, 0x73, 0x65, 0x71, 0x75, 0x65, 0x6e, 0x74,
    0x69, 0x61, 0x6c, 0x5f, 0x31, 0x2f, 0x62, 0x61, 0x74, 0x63, 0x68, 0x5f,
    0x6e, 0x6f, 0x72, 0x6d, 0x61, 0x6c, 0x69, 0x7a, 0x61, 0x74, 0x69, 0x6f,
    0x6e, 0x5f, 0x32, 0x5f, 0x31, 0x2f, 0x62, 0x61, 0x74, 0x63, 0x68, 0x6e,
    0x6f, 0x72, 0x6d, 0x2f, 0x6d, 0x75, 0x6c, 0x5f, 0x31, 0x3b, 0x73, 0x65,
    0x71, 0x75, 0x65, 0x6e, 0x74, 0x69, 0x61, 0x6c, 0x5f, 0x31, 0x2f, 0x63,
    0x6f, 0x6e, 0x76, 0x31, 0x64, 0x5f, 0x32, 0x5f, 0x31, 0x2f, 0x42, 0x69,
    0x61, 0x73, 0x41, 0x64, 0x64, 0x3b, 0x00, 0x00, 0x03, 0x00, 0x00, 0x00,
    0x01, 0x00, 0x00, 0x00, 0x0c, 0x00, 0x00, 0x00, 0x20, 0x00, 0x00, 0x00,
    0x8e, 0xe6, 0xff, 0xff, 0x00, 0x00, 0x00, 0x01, 0x18, 0x00, 0x00, 0x00,
    0x28, 0x00, 0x00, 0x00, 0x48, 0x00, 0x00, 0x00, 0x22, 0x00, 0x00, 0x00,
    0x00, 0x00, 0x00, 0x09, 0x38, 0x01, 0x00, 0x00, 0x04, 0x00, 0x00, 0x00,
    0xff, 0xff, 0xff, 0xff, 0x01, 0x00, 0x00, 0x00, 0x0c, 0x00, 0x00, 0x00,
    0x20, 0x00, 0x00, 0x00, 0x7c, 0xe6, 0xff, 0xff, 0x08, 0x00, 0x00, 0x00,
    0x14, 0x00, 0x00, 0x00, 0x01, 0x00, 0x00, 0x00, 0x80, 0xff, 0xff, 0xff,
    0xff, 0xff, 0xff, 0xff, 0x00, 0x00, 0x00, 0x00, 0x01, 0x00, 0x00, 0x00,
    0x25, 0xfa, 0xc7, 0x3c, 0xf6, 0x00, 0x00, 0x00, 0x73, 0x65, 0x71, 0x75,
    0x65, 0x6e, 0x74, 0x69, 0x61, 0x6c, 0x5f, 0x31, 0x2f, 0x72, 0x65, 0x5f,
    0x6c, 0x75, 0x5f, 0x32, 0x5f, 0x31, 0x2f, 0x52, 0x65, 0x6c, 0x75, 0x3b,
    0x73, 0x65, 0x71, 0x75, 0x65, 0x6e, 0x74, 0x69, 0x61, 0x6c, 0x5f, 0x31,
    0x2f, 0x62, 0x61, 0x74, 0x63, 0x68, 0x5f, 0x6e, 0x6f, 0x72, 0x6d, 0x61,
    0x6c, 0x69, 0x7a, 0x61, 0x74, 0x69, 0x6f, 0x6e, 0x5f, 0x32, 0x5f, 0x31,
    0x2f, 0x62, 0x61, 0x74, 0x63, 0x68, 0x6e, 0x6f, 0x72, 0x6d, 0x2f, 0x61,
    0x64, 0x64, 0x5f, 0x31, 0x3b, 0x73, 0x65, 0x71, 0x75, 0x65, 0x6e, 0x74,
    0x69, 0x61, 0x6c, 0x5f, 0x31, 0x2f, 0x63, 0x6f, 0x6e, 0x76, 0x31, 0x64,
    0x5f, 0x32, 0x5f, 0x31, 0x2f, 0x63, 0x6f, 0x6e, 0x76, 0x6f, 0x6c, 0x75,
    0x74, 0x69, 0x6f, 0x6e, 0x2f, 0x53, 0x71, 0x75, 0x65, 0x65, 0x7a, 0x65,
    0x3b, 0x73, 0x65, 0x71, 0x75, 0x65, 0x6e, 0x74, 0x69, 0x61, 0x6c, 0x5f,
    0x31, 0x2f, 0x62, 0x61, 0x74, 0x63, 0x68, 0x5f, 0x6e, 0x6f, 0x72, 0x6d,
    0x61, 0x6c, 0x69, 0x7a, 0x61, 0x74, 0x69, 0x6f, 0x6e, 0x5f, 0x32, 0x5f,
    0x31, 0x2f, 0x62, 0x61, 0x74, 0x63, 0x68, 0x6e, 0x6f, 0x72, 0x6d, 0x2f,
    0x6d, 0x75, 0x6c, 0x5f, 0x31, 0x3b, 0x73, 0x65, 0x71, 0x75, 0x65, 0x6e,
    0x74, 0x69, 0x61, 0x6c, 0x5f, 0x31, 0x2f, 0x63, 0x6f, 0x6e, 0x76, 0x31,
    0x64, 0x5f, 0x32, 0x5f, 0x31, 0x2f, 0x42, 0x69, 0x61, 0x73, 0x41, 0x64,
    0x64, 0x3b, 0x3b, 0x73, 0x65, 0x71, 0x75, 0x65, 0x6e, 0x74, 0x69, 0x61,
    0x6c, 0x5f, 0x31, 0x2f, 0x63, 0x6f, 0x6e, 0x76, 0x31, 0x64, 0x5f, 0x32,
    0x5f, 0x31, 0x2f, 0x63, 0x6f, 0x6e, 0x76, 0x6f, 0x6c, 0x75, 0x74, 0x69,
    0x6f, 0x6e, 0x00, 0x00, 0x04, 0x00, 0x00, 0x00, 0x01, 0x00, 0x00, 0x00,
    0x01, 0x00, 0x00, 0x00, 0x0c, 0x00, 0x00, 0x00, 0x20, 0x00, 0x00, 0x00,
    0xf6, 0xe7, 0xff, 0xff, 0x00, 0x00, 0x00, 0x01, 0x18, 0x00, 0x00, 0x00,
    0x28, 0x00, 0x00, 0x00, 0x44, 0x00, 0x00, 0x00, 0x21, 0x00, 0x00, 0x00,
    0x00, 0x00, 0x00, 0x09, 0x6c, 0x00, 0x00, 0x00, 0x04, 0x00, 0x00, 0x00,
    0xff, 0xff, 0xff, 0xff, 0x01, 0x00, 0x00, 0x00, 0x0c, 0x00, 0x00, 0x00,
    0x10, 0x00, 0x00, 0x00, 0xe4, 0xe7, 0xff, 0xff, 0x08, 0x00, 0x00, 0x00,
    0x10, 0x00, 0x00, 0x00, 0x01, 0x00, 0x00, 0x00, 0x80, 0xff, 0xff, 0xff,
    0xff, 0xff, 0xff, 0xff, 0x01, 0x00, 0x00, 0x00, 0xe8, 0x6d, 0x8d, 0x3c,
    0x2e, 0x00, 0x00, 0x00, 0x73, 0x65, 0x71, 0x75, 0x65, 0x6e, 0x74, 0x69,
    0x61, 0x6c, 0x5f, 0x31, 0x2f, 0x63, 0x6f, 0x6e, 0x76, 0x31, 0x64, 0x5f,
    0x32, 0x5f, 0x31, 0x2f, 0x63, 0x6f, 0x6e, 0x76, 0x6f, 0x6c, 0x75, 0x74,
    0x69, 0x6f, 0x6e, 0x2f, 0x45, 0x78, 0x70, 0x61, 0x6e, 0x64, 0x44, 0x69,
    0x6d, 0x73, 0x00, 0x00, 0x04, 0x00, 0x00, 0x00, 0x01, 0x00, 0x00, 0x00,
    0x01, 0x00, 0x00, 0x00, 0x0c, 0x00, 0x00, 0x00, 0x10, 0x00, 0x00, 0x00,
    0x92, 0xe8, 0xff, 0xff, 0x00, 0x00, 0x00, 0x01, 0x18, 0x00, 0x00, 0x00,
    0x24, 0x00, 0x00, 0x00, 0x44, 0x00, 0x00, 0x00, 0x20, 0x00, 0x00, 0x00,
    0x00, 0x00, 0x00, 0x09, 0x70, 0x00, 0x00, 0x00, 0x03, 0x00, 0x00, 0x00,
    0xff, 0xff, 0xff, 0xff, 0x0c, 0x00, 0x00, 0x00, 0x10, 0x00, 0x00, 0x00,
    0x7c, 0xe8, 0xff, 0xff, 0x08, 0x00, 0x00, 0x00, 0x14, 0x00, 0x00, 0x00,
    0x01, 0x00, 0x00, 0x00, 0x80, 0xff, 0xff, 0xff, 0xff, 0xff, 0xff, 0xff,
    0x00, 0x00, 0x00, 0x00, 0x01, 0x00, 0x00, 0x00, 0xe8, 0x6d, 0x8d, 0x3c,
    0x30, 0x00, 0x00, 0x00, 0x73, 0x65, 0x71, 0x75, 0x65, 0x6e, 0x74, 0x69,
    0x61, 0x6c, 0x5f, 0x31, 0x2f, 0x6d, 0x61, 0x78, 0x5f, 0x70, 0x6f, 0x6f,
    0x6c, 0x69, 0x6e, 0x67, 0x31, 0x64, 0x5f, 0x31, 0x5f, 0x32, 0x2f, 0x4d,
    0x61, 0x78, 0x50, 0x6f, 0x6f, 0x6c, 0x31, 0x64, 0x2f, 0x53, 0x71, 0x75,
    0x65, 0x65, 0x7a, 0x65, 0x00, 0x00, 0x00, 0x00, 0x03, 0x00, 0x00, 0x00,
    0x01, 0x00, 0x00, 0x00, 0x0c, 0x00, 0x00, 0x00, 0x10, 0x00, 0x00, 0x00,
    0x2e, 0xe9, 0xff, 0xff, 0x00, 0x00, 0x00, 0x01, 0x18, 0x00, 0x00, 0x00,
    0x28, 0x00, 0x00, 0x00, 0x44, 0x00, 0x00, 0x00, 0x1f, 0x00, 0x00, 0x00,
    0x00, 0x00, 0x00, 0x09, 0x68, 0x00, 0x00, 0x00, 0x04, 0x00, 0x00, 0x00,
    0xff, 0xff, 0xff, 0xff, 0x01, 0x00, 0x00, 0x00, 0x0c, 0x00, 0x00, 0x00,
    0x10, 0x00, 0x00, 0x00, 0x1c, 0xe9, 0xff, 0xff, 0x08, 0x00, 0x00, 0x00,
    0x10, 0x00, 0x00, 0x00, 0x01, 0x00, 0x00, 0x00, 0x80, 0xff, 0xff, 0xff,
    0xff, 0xff, 0xff, 0xff, 0x01, 0x00, 0x00, 0x00, 0xe8, 0x6d, 0x8d, 0x3c,
    0x28, 0x00, 0x00, 0x00, 0x73, 0x65, 0x71, 0x75, 0x65, 0x6e, 0x74, 0x69,
    0x61, 0x6c, 0x5f, 0x31, 0x2f, 0x6d, 0x61, 0x78, 0x5f, 0x70, 0x6f, 0x6f,
    0x6c, 0x69, 0x6e, 0x67, 0x31, 0x64, 0x5f, 0x31, 0x5f, 0x32, 0x2f, 0x4d,
    0x61, 0x78, 0x50, 0x6f, 0x6f, 0x6c, 0x31, 0x64, 0x00, 0x00, 0x00, 0x00,
    0x04, 0x00, 0x00, 0x00, 0x01, 0x00, 0x00, 0x00, 0x01, 0x00, 0x00, 0x00,
    0x0c, 0x00, 0x00, 0x00, 0x10, 0x00, 0x00, 0x00, 0xc6, 0xe9, 0xff, 0xff,
    0x00, 0x00, 0x00, 0x01, 0x18, 0x00, 0x00, 0x00, 0x28, 0x00, 0x00, 0x00,
    0x48, 0x00, 0x00, 0x00, 0x1e, 0x00, 0x00, 0x00, 0x00, 0x00, 0x00, 0x09,
    0x74, 0x00, 0x00, 0x00, 0x04, 0x00, 0x00, 0x00, 0xff, 0xff, 0xff, 0xff,
    0x01, 0x00, 0x00, 0x00, 0x19, 0x00, 0x00, 0x00, 0x10, 0x00, 0x00, 0x00,
    0xb4, 0xe9, 0xff, 0xff, 0x08, 0x00, 0x00, 0x00, 0x14, 0x00, 0x00, 0x00,
    0x01, 0x00, 0x00, 0x00, 0x80, 0xff, 0xff, 0xff, 0xff, 0xff, 0xff, 0xff,
    0x00, 0x00, 0x00, 0x00, 0x01, 0x00, 0x00, 0x00, 0xe8, 0x6d, 0x8d, 0x3c,
    0x33, 0x00, 0x00, 0x00, 0x73, 0x65, 0x71, 0x75, 0x65, 0x6e, 0x74, 0x69,
    0x61, 0x6c, 0x5f, 0x31, 0x2f, 0x6d, 0x61, 0x78, 0x5f, 0x70, 0x6f, 0x6f,
    0x6c, 0x69, 0x6e, 0x67, 0x31, 0x64, 0x5f, 0x31, 0x5f, 0x32, 0x2f, 0x4d,
    0x61, 0x78, 0x50, 0x6f, 0x6f, 0x6c, 0x31, 0x64, 0x2f, 0x45, 0x78, 0x70,
    0x61, 0x6e, 0x64, 0x44, 0x69, 0x6d, 0x73, 0x00, 0x04, 0x00, 0x00, 0x00,
    0x01, 0x00, 0x00, 0x00, 0x01, 0x00, 0x00, 0x00, 0x19, 0x00, 0x00, 0x00,
    0x10, 0x00, 0x00, 0x00, 0x6a, 0xea, 0xff, 0xff, 0x00, 0x00, 0x00, 0x01,
    0x18, 0x00, 0x00, 0x00, 0x24, 0x00, 0x00, 0x00, 0x44, 0x00, 0x00, 0x00,
    0x1d, 0x00, 0x00, 0x00, 0x00, 0x00, 0x00, 0x09, 0x10, 0x01, 0x00, 0x00,
    0x03, 0x00, 0x00, 0x00, 0xff, 0xff, 0xff, 0xff, 0x19, 0x00, 0x00, 0x00,
    0x10, 0x00, 0x00, 0x00, 0x54, 0xea, 0xff, 0xff, 0x08, 0x00, 0x00, 0x00,
    0x14, 0x00, 0x00, 0x00, 0x01, 0x00, 0x00, 0x00, 0x80, 0xff, 0xff, 0xff,
    0xff, 0xff, 0xff, 0xff, 0x00, 0x00, 0x00, 0x00, 0x01, 0x00, 0x00, 0x00,
    0xe8, 0x6d, 0x8d, 0x3c, 0xd2, 0x00, 0x00, 0x00, 0x73, 0x65, 0x71, 0x75,
    0x65, 0x6e, 0x74, 0x69, 0x61, 0x6c, 0x5f, 0x31, 0x2f, 0x72, 0x65, 0x5f,
    0x6c, 0x75, 0x5f, 0x31, 0x5f, 0x32, 0x2f, 0x52, 0x65, 0x6c, 0x75, 0x3b,
    0x73, 0x65, 0x71, 0x75, 0x65, 0x6e, 0x74, 0x69, 0x61, 0x6c, 0x5f, 0x31,
    0x2f, 0x62, 0x61, 0x74, 0x63, 0x68, 0x5f, 0x6e, 0x6f, 0x72, 0x6d, 0x61,
    0x6c, 0x69, 0x7a, 0x61, 0x74, 0x69, 0x6f, 0x6e, 0x5f, 0x31, 0x5f, 0x32,
    0x2f, 0x62, 0x61, 0x74, 0x63, 0x68, 0x6e, 0x6f, 0x72, 0x6d, 0x2f, 0x61,
    0x64, 0x64, 0x5f, 0x31, 0x3b, 0x73, 0x65, 0x71, 0x75, 0x65, 0x6e, 0x74,
    0x69, 0x61, 0x6c, 0x5f, 0x31, 0x2f, 0x63, 0x6f, 0x6e, 0x76, 0x31, 0x64,
    0x5f, 0x31, 0x5f, 0x32, 0x2f, 0x63, 0x6f, 0x6e, 0x76, 0x6f, 0x6c, 0x75,
    0x74, 0x69, 0x6f, 0x6e, 0x2f, 0x53, 0x71, 0x75, 0x65, 0x65, 0x7a, 0x65,
    0x3b, 0x73, 0x65, 0x71, 0x75, 0x65, 0x6e, 0x74, 0x69, 0x61, 0x6c, 0x5f,
    0x31, 0x2f, 0x62, 0x61, 0x74, 0x63, 0x68, 0x5f, 0x6e, 0x6f, 0x72, 0x6d,
    0x61, 0x6c, 0x69, 0x7a, 0x61, 0x74, 0x69, 0x6f, 0x6e, 0x5f, 0x31, 0x5f,
    0x32, 0x2f, 0x62, 0x61, 0x74, 0x63, 0x68, 0x6e, 0x6f, 0x72, 0x6d, 0x2f,
    0x6d, 0x75, 0x6c, 0x5f, 0x31, 0x3b, 0x73, 0x65, 0x71, 0x75, 0x65, 0x6e,
    0x74, 0x69, 0x61, 0x6c, 0x5f, 0x31, 0x2f, 0x63, 0x6f, 0x6e, 0x76, 0x31,
    0x64, 0x5f, 0x31, 0x5f, 0x32, 0x2f, 0x42, 0x69, 0x61, 0x73, 0x41, 0x64,
    0x64, 0x3b, 0x00, 0x00, 0x03, 0x00, 0x00, 0x00, 0x01, 0x00, 0x00, 0x00,
    0x19, 0x00, 0x00, 0x00, 0x10, 0x00, 0x00, 0x00, 0xa6, 0xeb, 0xff, 0xff,
    0x00, 0x00, 0x00, 0x01, 0x18, 0x00, 0x00, 0x00, 0x28, 0x00, 0x00, 0x00,
    0x48, 0x00, 0x00, 0x00, 0x1c, 0x00, 0x00, 0x00, 0x00, 0x00, 0x00, 0x09,
    0x38, 0x01, 0x00, 0x00, 0x04, 0x00, 0x00, 0x00, 0xff, 0xff, 0xff, 0xff,
    0x01, 0x00, 0x00, 0x00, 0x19, 0x00, 0x00, 0x00, 0x10, 0x00, 0x00, 0x00,
    0x94, 0xeb, 0xff, 0xff, 0x08, 0x00, 0x00, 0x00, 0x14, 0x00, 0x00, 0x00,
    0x01, 0x00, 0x00, 0x00, 0x80, 0xff, 0xff, 0xff, 0xff, 0xff, 0xff, 0xff,
    0x00, 0x00, 0x00, 0x00, 0x01, 0x00, 0x00, 0x00, 0xe8, 0x6d, 0x8d, 0x3c,
    0xf6, 0x00, 0x00, 0x00, 0x73, 0x65, 0x71, 0x75, 0x65, 0x6e, 0x74, 0x69,
    0x61, 0x6c, 0x5f, 0x31, 0x2f, 0x72, 0x65, 0x5f, 0x6c, 0x75, 0x5f, 0x31,
    0x5f, 0x32, 0x2f, 0x52, 0x65, 0x6c, 0x75, 0x3b, 0x73, 0x65, 0x71, 0x75,
    0x65, 0x6e, 0x74, 0x69, 0x61, 0x6c, 0x5f, 0x31, 0x2f, 0x62, 0x61, 0x74,
    0x63, 0x68, 0x5f, 0x6e, 0x6f, 0x72, 0x6d, 0x61, 0x6c, 0x69, 0x7a, 0x61,
    0x74, 0x69, 0x6f, 0x6e, 0x5f, 0x31, 0x5f, 0x32, 0x2f, 0x62, 0x61, 0x74,
    0x63, 0x68, 0x6e, 0x6f, 0x72, 0x6d, 0x2f, 0x61, 0x64, 0x64, 0x5f, 0x31,
    0x3b, 0x73, 0x65, 0x71, 0x75, 0x65, 0x6e, 0x74, 0x69, 0x61, 0x6c, 0x5f,
    0x31, 0x2f, 0x63, 0x6f, 0x6e, 0x76, 0x31, 0x64, 0x5f, 0x31, 0x5f, 0x32,
    0x2f, 0x63, 0x6f, 0x6e, 0x76, 0x6f, 0x6c, 0x75, 0x74, 0x69, 0x6f, 0x6e,
    0x2f, 0x53, 0x71, 0x75, 0x65, 0x65, 0x7a, 0x65, 0x3b, 0x73, 0x65, 0x71,
    0x75, 0x65, 0x6e, 0x74, 0x69, 0x61, 0x6c, 0x5f, 0x31, 0x2f, 0x62, 0x61,
    0x74, 0x63, 0x68, 0x5f, 0x6e, 0x6f, 0x72, 0x6d, 0x61, 0x6c, 0x69, 0x7a,
    0x61, 0x74, 0x69, 0x6f, 0x6e, 0x5f, 0x31, 0x5f, 0x32, 0x2f, 0x62, 0x61,
    0x74, 0x63, 0x68, 0x6e, 0x6f, 0x72, 0x6d, 0x2f, 0x6d, 0x75, 0x6c, 0x5f,
    0x31, 0x3b, 0x73, 0x65, 0x71, 0x75, 0x65, 0x6e, 0x74, 0x69, 0x61, 0x6c,
    0x5f, 0x31, 0x2f, 0x63, 0x6f, 0x6e, 0x76, 0x31, 0x64, 0x5f, 0x31, 0x5f,
    0x32, 0x2f, 0x42, 0x69, 0x61, 0x73, 0x41, 0x64, 0x64, 0x3b, 0x3b, 0x73,
    0x65, 0x71, 0x75, 0x65, 0x6e, 0x74, 0x69, 0x61, 0x6c, 0x5f, 0x31, 0x2f,
    0x63, 0x6f, 0x6e, 0x76, 0x31, 0x64, 0x5f, 0x31, 0x5f, 0x32, 0x2f, 0x63,
    0x6f, 0x6e, 0x76, 0x6f, 0x6c, 0x75, 0x74, 0x69, 0x6f, 0x6e, 0x00, 0x00,
    0x04, 0x00, 0x00, 0x00, 0x01, 0x00, 0x00, 0x00, 0x01, 0x00, 0x00, 0x00,
    0x19, 0x00, 0x00, 0x00, 0x10, 0x00, 0x00, 0x00, 0x0e, 0xed, 0xff, 0xff,
    0x00, 0x00, 0x00, 0x01, 0x18, 0x00, 0x00, 0x00, 0x28, 0x00, 0x00, 0x00,
    0x44, 0x00, 0x00, 0x00, 0x1b, 0x00, 0x00, 0x00, 0x00, 0x00, 0x00, 0x09,
    0x6c, 0x00, 0x00, 0x00, 0x04, 0x00, 0x00, 0x00, 0xff, 0xff, 0xff, 0xff,
    0x01, 0x00, 0x00, 0x00, 0x19, 0x00, 0x00, 0x00, 0x08, 0x00, 0x00, 0x00,
    0xfc, 0xec, 0xff, 0xff, 0x08, 0x00, 0x00, 0x00, 0x10, 0x00, 0x00, 0x00,
    0x01, 0x00, 0x00, 0x00, 0x80, 0xff, 0xff, 0xff, 0xff, 0xff, 0xff, 0xff,
    0x01, 0x00, 0x00, 0x00, 0x3d, 0x67, 0xbe, 0x3c, 0x2e, 0x00, 0x00, 0x00,
    0x73, 0x65, 0x71, 0x75, 0x65, 0x6e, 0x74, 0x69, 0x61, 0x6c, 0x5f, 0x31,
    0x2f, 0x63, 0x6f, 0x6e, 0x76, 0x31, 0x64, 0x5f, 0x31, 0x5f, 0x32, 0x2f,
    0x63, 0x6f, 0x6e, 0x76, 0x6f, 0x6c, 0x75, 0x74, 0x69, 0x6f, 0x6e, 0x2f,
    0x45, 0x78, 0x70, 0x61, 0x6e, 0x64, 0x44, 0x69, 0x6d, 0x73, 0x00, 0x00,
    0x04, 0x00, 0x00, 0x00, 0x01, 0x00, 0x00, 0x00, 0x01, 0x00, 0x00, 0x00,
    0x19, 0x00, 0x00, 0x00, 0x08, 0x00, 0x00, 0x00, 0xaa, 0xed, 0xff, 0xff,
    0x00, 0x00, 0x00, 0x01, 0x18, 0x00, 0x00, 0x00, 0x24, 0x00, 0x00, 0x00,
    0x40, 0x00, 0x00, 0x00, 0x1a, 0x00, 0x00, 0x00, 0x00, 0x00, 0x00, 0x09,
    0x68, 0x00, 0x00, 0x00, 0x03, 0x00, 0x00, 0x00, 0xff, 0xff, 0xff, 0xff,
    0x19, 0x00, 0x00, 0x00, 0x08, 0x00, 0x00, 0x00, 0x94, 0xed, 0xff, 0xff,
    0x08, 0x00, 0x00, 0x00, 0x10, 0x00, 0x00, 0x00, 0x01, 0x00, 0x00, 0x00,
    0x80, 0xff, 0xff, 0xff, 0xff, 0xff, 0xff, 0xff, 0x01, 0x00, 0x00, 0x00,
    0x3d, 0x67, 0xbe, 0x3c, 0x2e, 0x00, 0x00, 0x00, 0x73, 0x65, 0x71, 0x75,
    0x65, 0x6e, 0x74, 0x69, 0x61, 0x6c, 0x5f, 0x31, 0x2f, 0x6d, 0x61, 0x78,
    0x5f, 0x70, 0x6f, 0x6f, 0x6c, 0x69, 0x6e, 0x67, 0x31, 0x64, 0x5f, 0x31,
    0x2f, 0x4d, 0x61, 0x78, 0x50, 0x6f, 0x6f, 0x6c, 0x31, 0x64, 0x2f, 0x53,
    0x71, 0x75, 0x65, 0x65, 0x7a, 0x65, 0x00, 0x00, 0x03, 0x00, 0x00, 0x00,
    0x01, 0x00, 0x00, 0x00, 0x19, 0x00, 0x00, 0x00, 0x08, 0x00, 0x00, 0x00,
    0x3e, 0xee, 0xff, 0xff, 0x00, 0x00, 0x00, 0x01, 0x18, 0x00, 0x00, 0x00,
    0x28, 0x00, 0x00, 0x00, 0x48, 0x00, 0x00, 0x00, 0x19, 0x00, 0x00, 0x00,
    0x00, 0x00, 0x00, 0x09, 0x68, 0x00, 0x00, 0x00, 0x04, 0x00, 0x00, 0x00,
    0xff, 0xff, 0xff, 0xff, 0x01, 0x00, 0x00, 0x00, 0x19, 0x00, 0x00, 0x00,
    0x08, 0x00, 0x00, 0x00, 0x2c, 0xee, 0xff, 0xff, 0x08, 0x00, 0x00, 0x00,
    0x14, 0x00, 0x00, 0x00, 0x01, 0x00, 0x00, 0x00, 0x80, 0xff, 0xff, 0xff,
    0xff, 0xff, 0xff, 0xff, 0x00, 0x00, 0x00, 0x00, 0x01, 0x00, 0x00, 0x00,
    0x3d, 0x67, 0xbe, 0x3c, 0x26, 0x00, 0x00, 0x00, 0x73, 0x65, 0x71, 0x75,
    0x65, 0x6e, 0x74, 0x69, 0x61, 0x6c, 0x5f, 0x31, 0x2f, 0x6d, 0x61, 0x78,
    0x5f, 0x70, 0x6f, 0x6f, 0x6c, 0x69, 0x6e, 0x67, 0x31, 0x64, 0x5f, 0x31,
    0x2f, 0x4d, 0x61, 0x78, 0x50, 0x6f, 0x6f, 0x6c, 0x31, 0x64, 0x00, 0x00,
    0x04, 0x00, 0x00, 0x00, 0x01, 0x00, 0x00, 0x00, 0x01, 0x00, 0x00, 0x00,
    0x19, 0x00, 0x00, 0x00, 0x08, 0x00, 0x00, 0x00, 0xd6, 0xee, 0xff, 0xff,
    0x00, 0x00, 0x00, 0x01, 0x18, 0x00, 0x00, 0x00, 0x28, 0x00, 0x00, 0x00,
    0x48, 0x00, 0x00, 0x00, 0x18, 0x00, 0x00, 0x00, 0x00, 0x00, 0x00, 0x09,
    0x74, 0x00, 0x00, 0x00, 0x04, 0x00, 0x00, 0x00, 0xff, 0xff, 0xff, 0xff,
    0x01, 0x00, 0x00, 0x00, 0x32, 0x00, 0x00, 0x00, 0x08, 0x00, 0x00, 0x00,
    0xc4, 0xee, 0xff, 0xff, 0x08, 0x00, 0x00, 0x00, 0x14, 0x00, 0x00, 0x00,
    0x01, 0x00, 0x00, 0x00, 0x80, 0xff, 0xff, 0xff, 0xff, 0xff, 0xff, 0xff,
    0x00, 0x00, 0x00, 0x00, 0x01, 0x00, 0x00, 0x00, 0x3d, 0x67, 0xbe, 0x3c,
    0x31, 0x00, 0x00, 0x00, 0x73, 0x65, 0x71, 0x75, 0x65, 0x6e, 0x74, 0x69,
    0x61, 0x6c, 0x5f, 0x31, 0x2f, 0x6d, 0x61, 0x78, 0x5f, 0x70, 0x6f, 0x6f,
    0x6c, 0x69, 0x6e, 0x67, 0x31, 0x64, 0x5f, 0x31, 0x2f, 0x4d, 0x61, 0x78,
    0x50, 0x6f, 0x6f, 0x6c, 0x31, 0x64, 0x2f, 0x45, 0x78, 0x70, 0x61, 0x6e,
    0x64, 0x44, 0x69, 0x6d, 0x73, 0x00, 0x00, 0x00, 0x04, 0x00, 0x00, 0x00,
    0x01, 0x00, 0x00, 0x00, 0x01, 0x00, 0x00, 0x00, 0x32, 0x00, 0x00, 0x00,
    0x08, 0x00, 0x00, 0x00, 0x7a, 0xef, 0xff, 0xff, 0x00, 0x00, 0x00, 0x01,
    0x18, 0x00, 0x00, 0x00, 0x24, 0x00, 0x00, 0x00, 0x44, 0x00, 0x00, 0x00,
    0x17, 0x00, 0x00, 0x00, 0x00, 0x00, 0x00, 0x09, 0x08, 0x01, 0x00, 0x00,
    0x03, 0x00, 0x00, 0x00, 0xff, 0xff, 0xff, 0xff, 0x32, 0x00, 0x00, 0x00,
    0x08, 0x00, 0x00, 0x00, 0x64, 0xef, 0xff, 0xff, 0x08, 0x00, 0x00, 0x00,
    0x14, 0x00, 0x00, 0x00, 0x01, 0x00, 0x00, 0x00, 0x80, 0xff, 0xff, 0xff,
    0xff, 0xff, 0xff, 0xff, 0x00, 0x00, 0x00, 0x00, 0x01, 0x00, 0x00, 0x00,
    0x3d, 0x67, 0xbe, 0x3c, 0xc8, 0x00, 0x00, 0x00, 0x73, 0x65, 0x71, 0x75,
    0x65, 0x6e, 0x74, 0x69, 0x61, 0x6c, 0x5f, 0x31, 0x2f, 0x72, 0x65, 0x5f,
    0x6c, 0x75, 0x5f, 0x31, 0x2f, 0x52, 0x65, 0x6c, 0x75, 0x3b, 0x73, 0x65,
    0x71, 0x75, 0x65, 0x6e, 0x74, 0x69, 0x61, 0x6c, 0x5f, 0x31, 0x2f, 0x62,
    0x61, 0x74, 0x63, 0x68, 0x5f, 0x6e, 0x6f, 0x72, 0x6d, 0x61, 0x6c, 0x69,
    0x7a, 0x61, 0x74, 0x69, 0x6f, 0x6e, 0x5f, 0x31, 0x2f, 0x62, 0x61, 0x74,
    0x63, 0x68, 0x6e, 0x6f, 0x72, 0x6d, 0x2f, 0x61, 0x64, 0x64, 0x5f, 0x31,
    0x3b, 0x73, 0x65, 0x71, 0x75, 0x65, 0x6e, 0x74, 0x69, 0x61, 0x6c, 0x5f,
    0x31, 0x2f, 0x63, 0x6f, 0x6e, 0x76, 0x31, 0x64, 0x5f, 0x31, 0x2f, 0x63,
    0x6f, 0x6e, 0x76, 0x6f, 0x6c, 0x75, 0x74, 0x69, 0x6f, 0x6e, 0x2f, 0x53,
    0x71, 0x75, 0x65, 0x65, 0x7a, 0x65, 0x3b, 0x73, 0x65, 0x71, 0x75, 0x65,
    0x6e, 0x74, 0x69, 0x61, 0x6c, 0x5f, 0x31, 0x2f, 0x62, 0x61, 0x74, 0x63,
    0x68, 0x5f, 0x6e, 0x6f, 0x72, 0x6d, 0x61, 0x6c, 0x69, 0x7a, 0x61, 0x74,
    0x69, 0x6f, 0x6e, 0x5f, 0x31, 0x2f, 0x62, 0x61, 0x74, 0x63, 0x68, 0x6e,
    0x6f, 0x72, 0x6d, 0x2f, 0x6d, 0x75, 0x6c, 0x5f, 0x31, 0x3b, 0x73, 0x65,
    0x71, 0x75, 0x65, 0x6e, 0x74, 0x69, 0x61, 0x6c, 0x5f, 0x31, 0x2f, 0x63,
    0x6f, 0x6e, 0x76, 0x31, 0x64, 0x5f, 0x31, 0x2f, 0x42, 0x69, 0x61, 0x73,
    0x41, 0x64, 0x64, 0x3b, 0x00, 0x00, 0x00, 0x00, 0x03, 0x00, 0x00, 0x00,
    0x01, 0x00, 0x00, 0x00, 0x32, 0x00, 0x00, 0x00, 0x08, 0x00, 0x00, 0x00,
    0xae, 0xf0, 0xff, 0xff, 0x00, 0x00, 0x00, 0x01, 0x18, 0x00, 0x00, 0x00,
    0x28, 0x00, 0x00, 0x00, 0x44, 0x00, 0x00, 0x00, 0x16, 0x00, 0x00, 0x00,
    0x00, 0x00, 0x00, 0x09, 0x28, 0x01, 0x00, 0x00, 0x04, 0x00, 0x00, 0x00,
    0xff, 0xff, 0xff, 0xff, 0x01, 0x00, 0x00, 0x00, 0x32, 0x00, 0x00, 0x00,
    0x08, 0x00, 0x00, 0x00, 0x9c, 0xf0, 0xff, 0xff, 0x08, 0x00, 0x00, 0x00,
    0x10, 0x00, 0x00, 0x00, 0x01, 0x00, 0x00, 0x00, 0x80, 0xff, 0xff, 0xff,
    0xff, 0xff, 0xff, 0xff, 0x01, 0x00, 0x00, 0x00, 0x3d, 0x67, 0xbe, 0x3c,
    0xea, 0x00, 0x00, 0x00, 0x73, 0x65, 0x71, 0x75, 0x65, 0x6e, 0x74, 0x69,
    0x61, 0x6c, 0x5f, 0x31, 0x2f, 0x72, 0x65, 0x5f, 0x6c, 0x75, 0x5f, 0x31,
    0x2f, 0x52, 0x65, 0x6c, 0x75, 0x3b, 0x73, 0x65, 0x71, 0x75, 0x65, 0x6e,
    0x74, 0x69, 0x61, 0x6c, 0x5f, 0x31, 0x2f, 0x62, 0x61, 0x74, 0x63, 0x68,
    0x5f, 0x6e, 0x6f, 0x72, 0x6d, 0x61, 0x6c, 0x69, 0x7a, 0x61, 0x74, 0x69,
    0x6f, 0x6e, 0x5f, 0x31, 0x2f, 0x62, 0x61, 0x74, 0x63, 0x68, 0x6e, 0x6f,
    0x72, 0x6d, 0x2f, 0x61, 0x64, 0x64, 0x5f, 0x31, 0x3b, 0x73, 0x65, 0x71,
    0x75, 0x65, 0x6e, 0x74, 0x69, 0x61, 0x6c, 0x5f, 0x31, 0x2f, 0x63, 0x6f,
    0x6e, 0x76, 0x31, 0x64, 0x5f, 0x31, 0x2f, 0x63, 0x6f, 0x6e, 0x76, 0x6f,
    0x6c, 0x75, 0x74, 0x69, 0x6f, 0x6e, 0x2f, 0x53, 0x71, 0x75, 0x65, 0x65,
    0x7a, 0x65, 0x3b, 0x73, 0x65, 0x71, 0x75, 0x65, 0x6e, 0x74, 0x69, 0x61,
    0x6c, 0x5f, 0x31, 0x2f, 0x62, 0x61, 0x74, 0x63, 0x68, 0x5f, 0x6e, 0x6f,
    0x72, 0x6d, 0x61, 0x6c, 0x69, 0x7a, 0x61, 0x74, 0x69, 0x6f, 0x6e, 0x5f,
    0x31, 0x2f, 0x62, 0x61, 0x74, 0x63, 0x68, 0x6e, 0x6f, 0x72, 0x6d, 0x2f,
    0x6d, 0x75, 0x6c, 0x5f, 0x31, 0x3b, 0x73, 0x65, 0x71, 0x75, 0x65, 0x6e,
    0x74, 0x69, 0x61, 0x6c, 0x5f, 0x31, 0x2f, 0x63, 0x6f, 0x6e, 0x76, 0x31,
    0x64, 0x5f, 0x31, 0x2f, 0x42, 0x69, 0x61, 0x73, 0x41, 0x64, 0x64, 0x3b,
    0x3b, 0x73, 0x65, 0x71, 0x75, 0x65, 0x6e, 0x74, 0x69, 0x61, 0x6c, 0x5f,
    0x31, 0x2f, 0x63, 0x6f, 0x6e, 0x76, 0x31, 0x64, 0x5f, 0x31, 0x2f, 0x63,
    0x6f, 0x6e, 0x76, 0x6f, 0x6c, 0x75, 0x74, 0x69, 0x6f, 0x6e, 0x00, 0x00,
    0x04, 0x00, 0x00, 0x00, 0x01, 0x00, 0x00, 0x00, 0x01, 0x00, 0x00, 0x00,
    0x32, 0x00, 0x00, 0x00, 0x08, 0x00, 0x00, 0x00, 0x06, 0xf2, 0xff, 0xff,
    0x00, 0x00, 0x00, 0x01, 0x18, 0x00, 0x00, 0x00, 0x28, 0x00, 0x00, 0x00,
    0x48, 0x00, 0x00, 0x00, 0x15, 0x00, 0x00, 0x00, 0x00, 0x00, 0x00, 0x09,
    0x70, 0x00, 0x00, 0x00, 0x04, 0x00, 0x00, 0x00, 0xff, 0xff, 0xff, 0xff,
    0x01, 0x00, 0x00, 0x00, 0x32, 0x00, 0x00, 0x00, 0x14, 0x00, 0x00, 0x00,
    0xf4, 0xf1, 0xff, 0xff, 0x08, 0x00, 0x00, 0x00, 0x14, 0x00, 0x00, 0x00,
    0x01, 0x00, 0x00, 0x00, 0x54, 0x00, 0x00, 0x00, 0x00, 0x00, 0x00, 0x00,
    0x00, 0x00, 0x00, 0x00, 0x01, 0x00, 0x00, 0x00, 0x89, 0x97, 0x6a, 0x40,
    0x2c, 0x00, 0x00, 0x00, 0x73, 0x65, 0x71, 0x75, 0x65, 0x6e, 0x74, 0x69,
    0x61, 0x6c, 0x5f, 0x31, 0x2f, 0x63, 0x6f, 0x6e, 0x76, 0x31, 0x64, 0x5f,
    0x31, 0x2f, 0x63, 0x6f, 0x6e, 0x76, 0x6f, 0x6c, 0x75, 0x74, 0x69, 0x6f,
    0x6e, 0x2f, 0x45, 0x78, 0x70, 0x61, 0x6e, 0x64, 0x44, 0x69, 0x6d, 0x73,
    0x00, 0x00, 0x00, 0x00, 0x04, 0x00, 0x00, 0x00, 0x01, 0x00, 0x00, 0x00,
    0x01, 0x00, 0x00, 0x00, 0x32, 0x00, 0x00, 0x00, 0x14, 0x00, 0x00, 0x00,
    0xfa, 0xf2, 0xff, 0xff, 0x00, 0x00, 0x00, 0x01, 0x14, 0x00, 0x00, 0x00,
    0x88, 0x00, 0x00, 0x00, 0x14, 0x00, 0x00, 0x00, 0x00, 0x00, 0x00, 0x09,
    0x94, 0x00, 0x00, 0x00, 0x7c, 0xf2, 0xff, 0xff, 0x08, 0x00, 0x00, 0x00,
    0x4c, 0x00, 0x00, 0x00, 0x08, 0x00, 0x00, 0x00, 0x00, 0x00, 0x00, 0x00,
    0x00, 0x00, 0x00, 0x00, 0x00, 0x00, 0x00, 0x00, 0x00, 0x00, 0x00, 0x00,
    0x00, 0x00, 0x00, 0x00, 0x00, 0x00, 0x00, 0x00, 0x00, 0x00, 0x00, 0x00,
    0x00, 0x00, 0x00, 0x00, 0x00, 0x00, 0x00, 0x00, 0x00, 0x00, 0x00, 0x00,
    0x00, 0x00, 0x00, 0x00, 0x00, 0x00, 0x00, 0x00, 0x00, 0x00, 0x00, 0x00,
    0x00, 0x00, 0x00, 0x00, 0x00, 0x00, 0x00, 0x00, 0x00, 0x00, 0x00, 0x00,
    0x00, 0x00, 0x00, 0x00, 0x08, 0x00, 0x00, 0x00, 0x50, 0x7f, 0x18, 0x39,
    0x04, 0xbb, 0xf5, 0x38, 0xbc, 0x6f, 0xfc, 0x38, 0xbb, 0x12, 0x2e, 0x39,
    0xdf, 0xc4, 0x0b, 0x39, 0xd1, 0x7b, 0x75, 0x38, 0x41, 0x3d, 0xd8, 0x38,
    0x5a, 0x07, 0xd2, 0x38, 0x13, 0x00, 0x00, 0x00, 0x74, 0x66, 0x6c, 0x2e,
    0x70, 0x73, 0x65, 0x75, 0x64, 0x6f, 0x5f, 0x71, 0x63, 0x6f, 0x6e, 0x73,
    0x74, 0x31, 0x31, 0x00, 0x04, 0x00, 0x00, 0x00, 0x08, 0x00, 0x00, 0x00,
    0x01, 0x00, 0x00, 0x00, 0x03, 0x00, 0x00, 0x00, 0x14, 0x00, 0x00, 0x00,
    0xba, 0xf3, 0xff, 0xff, 0x00, 0x00, 0x00, 0x01, 0x14, 0x00, 0x00, 0x00,
    0x84, 0x00, 0x00, 0x00, 0x13, 0x00, 0x00, 0x00, 0x00, 0x00, 0x00, 0x02,
    0x90, 0x00, 0x00, 0x00, 0x3c, 0xf3, 0xff, 0xff, 0x08, 0x00, 0x00, 0x00,
    0x48, 0x00, 0x00, 0x00, 0x08, 0x00, 0x00, 0x00, 0x00, 0x00, 0x00, 0x00,
    0x00, 0x00, 0x00, 0x00, 0x00, 0x00, 0x00, 0x00, 0x00, 0x00, 0x00, 0x00,
    0x00, 0x00, 0x00, 0x00, 0x00, 0x00, 0x00, 0x00, 0x00, 0x00, 0x00, 0x00,
    0x00, 0x00, 0x00, 0x00, 0x00, 0x00, 0x00, 0x00, 0x00, 0x00, 0x00, 0x00,
    0x00, 0x00, 0x00, 0x00, 0x00, 0x00, 0x00, 0x00, 0x00, 0x00, 0x00, 0x00,
    0x00, 0x00, 0x00, 0x00, 0x00, 0x00, 0x00, 0x00, 0x00, 0x00, 0x00, 0x00,
    0x08, 0x00, 0x00, 0x00, 0xa4, 0xbe, 0x0b, 0x3a, 0x66, 0x2e, 0xe1, 0x39,
    0x8f, 0x53, 0xe7, 0x39, 0x29, 0x84, 0x1f, 0x3a, 0xb0, 0x14, 0x00, 0x3a,
    0x7c, 0xf4, 0x60, 0x39, 0xfd, 0x27, 0xc6, 0x39, 0x0b, 0x77, 0xc0, 0x39,
    0x13, 0x00, 0x00, 0x00, 0x74, 0x66, 0x6c, 0x2e, 0x70, 0x73, 0x65, 0x75,
    0x64, 0x6f, 0x5f, 0x71, 0x63, 0x6f, 0x6e, 0x73, 0x74, 0x31, 0x30, 0x00,
    0x01, 0x00, 0x00, 0x00, 0x08, 0x00, 0x00, 0x00, 0x6a, 0xf4, 0xff, 0xff,
    0x00, 0x00, 0x00, 0x01, 0x14, 0x00, 0x00, 0x00, 0xe8, 0x00, 0x00, 0x00,
    0x12, 0x00, 0x00, 0x00, 0x00, 0x00, 0x00, 0x09, 0xf4, 0x00, 0x00, 0x00,
    0xec, 0xf3, 0xff, 0xff, 0x08, 0x00, 0x00, 0x00, 0x8c, 0x00, 0x00, 0x00,
    0x10, 0x00, 0x00, 0x00, 0x00, 0x00, 0x00, 0x00, 0x00, 0x00, 0x00, 0x00,
    0x00, 0x00, 0x00, 0x00, 0x00, 0x00, 0x00, 0x00, 0x00, 0x00, 0x00, 0x00,
    0x00, 0x00, 0x00, 0x00, 0x00, 0x00, 0x00, 0x00, 0x00, 0x00, 0x00, 0x00,
    0x00, 0x00, 0x00, 0x00, 0x00, 0x00, 0x00, 0x00, 0x00, 0x00, 0x00, 0x00,
    0x00, 0x00, 0x00, 0x00, 0x00, 0x00, 0x00, 0x00, 0x00, 0x00, 0x00, 0x00,
    0x00, 0x00, 0x00, 0x00, 0x00, 0x00, 0x00, 0x00, 0x00, 0x00, 0x00, 0x00,
    0x00, 0x00, 0x00, 0x00, 0x00, 0x00, 0x00, 0x00, 0x00, 0x00, 0x00, 0x00,
    0x00, 0x00, 0x00, 0x00, 0x00, 0x00, 0x00, 0x00, 0x00, 0x00, 0x00, 0x00,
    0x00, 0x00, 0x00, 0x00, 0x00, 0x00, 0x00, 0x00, 0x00, 0x00, 0x00, 0x00,
    0x00, 0x00, 0x00, 0x00, 0x00, 0x00, 0x00, 0x00, 0x00, 0x00, 0x00, 0x00,
    0x00, 0x00, 0x00, 0x00, 0x00, 0x00, 0x00, 0x00, 0x00, 0x00, 0x00, 0x00,
    0x00, 0x00, 0x00, 0x00, 0x10, 0x00, 0x00, 0x00, 0xa6, 0x26, 0x7f, 0x3b,
    0xef, 0xd1, 0xad, 0x3b, 0x33, 0x96, 0x62, 0x3b, 0x95, 0x28, 0xb8, 0x3b,
    0x60, 0xff, 0x24, 0x3c, 0xad, 0x9f, 0xca, 0x3b, 0x30, 0xa9, 0x8d, 0x3b,
    0x5b, 0xe2, 0x85, 0x3b, 0xd7, 0x94, 0x88, 0x3b, 0xdd, 0x1e, 0x49, 0x3b,
    0xee, 0xdf, 0x33, 0x3b, 0x94, 0x4f, 0x5d, 0x3b, 0x33, 0x7d, 0xfa, 0x3b,
    0x9f, 0x01, 0x90, 0x3b, 0xbd, 0x10, 0x97, 0x3b, 0x3c, 0xc8, 0xe2, 0x3b,
    0x12, 0x00, 0x00, 0x00, 0x74, 0x66, 0x6c, 0x2e, 0x70, 0x73, 0x65, 0x75,
    0x64, 0x6f, 0x5f, 0x71, 0x63, 0x6f, 0x6e, 0x73, 0x74, 0x39, 0x00, 0x00,
    0x04, 0x00, 0x00, 0x00, 0x10, 0x00, 0x00, 0x00, 0x01, 0x00, 0x00, 0x00,
    0x03, 0x00, 0x00, 0x00, 0x08, 0x00, 0x00, 0x00, 0x8a, 0xf5, 0xff, 0xff,
    0x00, 0x00, 0x00, 0x01, 0x14, 0x00, 0x00, 0x00, 0xe4, 0x00, 0x00, 0x00,
    0x11, 0x00, 0x00, 0x00, 0x00, 0x00, 0x00, 0x02, 0xf0, 0x00, 0x00, 0x00,
    0x0c, 0xf5, 0xff, 0xff, 0x08, 0x00, 0x00, 0x00, 0x88, 0x00, 0x00, 0x00,
    0x10, 0x00, 0x00, 0x00, 0x00, 0x00, 0x00, 0x00, 0x00, 0x00, 0x00, 0x00,
    0x00, 0x00, 0x00, 0x00, 0x00, 0x00, 0x00, 0x00, 0x00, 0x00, 0x00, 0x00,
    0x00, 0x00, 0x00, 0x00, 0x00, 0x00, 0x00, 0x00, 0x00, 0x00, 0x00, 0x00,
    0x00, 0x00, 0x00, 0x00, 0x00, 0x00, 0x00, 0x00, 0x00, 0x00, 0x00, 0x00,
    0x00, 0x00, 0x00, 0x00, 0x00, 0x00, 0x00, 0x00, 0x00, 0x00, 0x00, 0x00,
    0x00, 0x00, 0x00, 0x00, 0x00, 0x00, 0x00, 0x00, 0x00, 0x00, 0x00, 0x00,
    0x00, 0x00, 0x00, 0x00, 0x00, 0x00, 0x00, 0x00, 0x00, 0x00, 0x00, 0x00,
    0x00, 0x00, 0x00, 0x00, 0x00, 0x00, 0x00, 0x00, 0x00, 0x00, 0x00, 0x00,
    0x00, 0x00, 0x00, 0x00, 0x00, 0x00, 0x00, 0x00, 0x00, 0x00, 0x00, 0x00,
    0x00, 0x00, 0x00, 0x00, 0x00, 0x00, 0x00, 0x00, 0x00, 0x00, 0x00, 0x00,
    0x00, 0x00, 0x00, 0x00, 0x00, 0x00, 0x00, 0x00, 0x00, 0x00, 0x00, 0x00,
    0x10, 0x00, 0x00, 0x00, 0x95, 0xc5, 0xbd, 0x38, 0xe8, 0x47, 0x01, 0x39,
    0xda, 0x86, 0xa8, 0x38, 0x63, 0xf8, 0x08, 0x39, 0x27, 0x70, 0x75, 0x39,
    0x39, 0xb4, 0x16, 0x39, 0x65, 0xb9, 0xd2, 0x38, 0xfb, 0x27, 0xc7, 0x38,
    0x18, 0x2b, 0xcb, 0x38, 0x03, 0x96, 0x95, 0x38, 0xbd, 0xc8, 0x85, 0x38,
    0x50, 0x9a, 0xa4, 0x38, 0xf0, 0x4d, 0x3a, 0x39, 0x8e, 0x36, 0xd6, 0x38,
    0xb0, 0xb6, 0xe0, 0x38, 0x11, 0xac, 0x28, 0x39, 0x12, 0x00, 0x00, 0x00,
    0x74, 0x66, 0x6c, 0x2e, 0x70, 0x73, 0x65, 0x75, 0x64, 0x6f, 0x5f, 0x71,
    0x63, 0x6f, 0x6e, 0x73, 0x74, 0x38, 0x00, 0x00, 0x01, 0x00, 0x00, 0x00,
    0x10, 0x00, 0x00, 0x00, 0x9a, 0xf6, 0xff, 0xff, 0x00, 0x00, 0x00, 0x01,
    0x14, 0x00, 0x00, 0x00, 0xa8, 0x01, 0x00, 0x00, 0x10, 0x00, 0x00, 0x00,
    0x00, 0x00, 0x00, 0x09, 0xb4, 0x01, 0x00, 0x00, 0x1c, 0xf6, 0xff, 0xff,
    0x08, 0x00, 0x00, 0x00, 0x0c, 0x01, 0x00, 0x00, 0x20, 0x00, 0x00, 0x00,
    0x00, 0x00, 0x00, 0x00, 0x00, 0x00, 0x00, 0x00, 0x00, 0x00, 0x00, 0x00,
    0x00, 0x00, 0x00, 0x00, 0x00, 0x00, 0x00, 0x00, 0x00, 0x00, 0x00, 0x00,
    0x00, 0x00, 0x00, 0x00, 0x00, 0x00, 0x00, 0x00, 0x00, 0x00, 0x00, 0x00,
    0x00, 0x00, 0x00, 0x00, 0x00, 0x00, 0x00, 0x00, 0x00, 0x00, 0x00, 0x00,
    0x00, 0x00, 0x00, 0x00, 0x00, 0x00, 0x00, 0x00, 0x00, 0x00, 0x00, 0x00,
    0x00, 0x00, 0x00, 0x00, 0x00, 0x00, 0x00, 0x00, 0x00, 0x00, 0x00, 0x00,
    0x00, 0x00, 0x00, 0x00, 0x00, 0x00, 0x00, 0x00, 0x00, 0x00, 0x00, 0x00,
    0x00, 0x00, 0x00, 0x00, 0x00, 0x00, 0x00, 0x00, 0x00, 0x00, 0x00, 0x00,
    0x00, 0x00, 0x00, 0x00, 0x00, 0x00, 0x00, 0x00, 0x00, 0x00, 0x00, 0x00,
    0x00, 0x00, 0x00, 0x00, 0x00, 0x00, 0x00, 0x00, 0x00, 0x00, 0x00, 0x00,
    0x00, 0x00, 0x00, 0x00, 0x00, 0x00, 0x00, 0x00, 0x00, 0x00, 0x00, 0x00,
    0x00, 0x00, 0x00, 0x00, 0x00, 0x00, 0x00, 0x00, 0x00, 0x00, 0x00, 0x00,
    0x00, 0x00, 0x00, 0x00, 0x00, 0x00, 0x00, 0x00, 0x00, 0x00, 0x00, 0x00,
    0x00, 0x00, 0x00, 0x00, 0x00, 0x00, 0x00, 0x00, 0x00, 0x00, 0x00, 0x00,
    0x00, 0x00, 0x00, 0x00, 0x00, 0x00, 0x00, 0x00, 0x00, 0x00, 0x00, 0x00,
    0x00, 0x00, 0x00, 0x00, 0x00, 0x00, 0x00, 0x00, 0x00, 0x00, 0x00, 0x00,
    0x00, 0x00, 0x00, 0x00, 0x00, 0x00, 0x00, 0x00, 0x00, 0x00, 0x00, 0x00,
    0x00, 0x00, 0x00, 0x00, 0x00, 0x00, 0x00, 0x00, 0x00, 0x00, 0x00, 0x00,
    0x00, 0x00, 0x00, 0x00, 0x00, 0x00, 0x00, 0x00, 0x00, 0x00, 0x00, 0x00,
    0x00, 0x00, 0x00, 0x00, 0x00, 0x00, 0x00, 0x00, 0x00, 0x00, 0x00, 0x00,
    0x00, 0x00, 0x00, 0x00, 0x00, 0x00, 0x00, 0x00, 0x00, 0x00, 0x00, 0x00,
    0x00, 0x00, 0x00, 0x00, 0x00, 0x00, 0x00, 0x00, 0x20, 0x00, 0x00, 0x00,
    0x25, 0x5e, 0x68, 0x3b, 0x24, 0x4b, 0x5e, 0x3b, 0x81, 0x31, 0x38, 0x3b,
    0xe4, 0x14, 0x44, 0x3b, 0xed, 0xdf, 0x86, 0x3b, 0xb1, 0x16, 0x9c, 0x3b,
    0x64, 0xa7, 0x65, 0x3b, 0x63, 0xe0, 0x59, 0x3b, 0x2d, 0x5f, 0x75, 0x3b,
    0xe9, 0xe8, 0x8e, 0x3b, 0x64, 0xa9, 0x8d, 0x3b, 0x23, 0xfa, 0x11, 0x3b,
    0x4a, 0x90, 0x9d, 0x3b, 0x28, 0xc7, 0xab, 0x3b, 0xae, 0x5e, 0x85, 0x3b,
    0x29, 0xbd, 0xa5, 0x3b, 0xd6, 0xb2, 0x70, 0x3b, 0x3f, 0x44, 0x97, 0x3b,
    0x37, 0xaa, 0x8d, 0x3b, 0x24, 0x4d, 0x80, 0x3b, 0xe7, 0x3f, 0x9e, 0x3b,
    0xa2, 0x9a, 0x1d, 0x3b, 0x12, 0xbc, 0x83, 0x3b, 0xe6, 0x91, 0x99, 0x3b,
    0x1f, 0x00, 0x5b, 0x3b, 0xc2, 0xb9, 0x6b, 0x3b, 0x57, 0xb9, 0x5c, 0x3b,
    0x17, 0xf3, 0x81, 0x3b, 0xf9, 0x29, 0x97, 0x3b, 0x4c, 0xed, 0x6d, 0x3b,
    0x42, 0x51, 0x89, 0x3b, 0xb3, 0x1a, 0x69, 0x3b, 0x12, 0x00, 0x00, 0x00,
    0x74, 0x66, 0x6c, 0x2e, 0x70, 0x73, 0x65, 0x75, 0x64, 0x6f, 0x5f, 0x71,
    0x63, 0x6f, 0x6e, 0x73, 0x74, 0x37, 0x00, 0x00, 0x04, 0x00, 0x00, 0x00,
    0x20, 0x00, 0x00, 0x00, 0x01, 0x00, 0x00, 0x00, 0x03, 0x00, 0x00, 0x00,
    0x10, 0x00, 0x00, 0x00, 0x7a, 0xf8, 0xff, 0xff, 0x00, 0x00, 0x00, 0x01,
    0x14, 0x00, 0x00, 0x00, 0xa4, 0x01, 0x00, 0x00, 0x0f, 0x00, 0x00, 0x00,
    0x00, 0x00, 0x00, 0x02, 0xb0, 0x01, 0x00, 0x00, 0xfc, 0xf7, 0xff, 0xff,
    0x08, 0x00, 0x00, 0x00, 0x08, 0x01, 0x00, 0x00, 0x20, 0x00, 0x00, 0x00,
    0x00, 0x00, 0x00, 0x00, 0x00, 0x00, 0x00, 0x00, 0x00, 0x00, 0x00, 0x00,
    0x00, 0x00, 0x00, 0x00, 0x00, 0x00, 0x00, 0x00, 0x00, 0x00, 0x00, 0x00,
    0x00, 0x00, 0x00, 0x00, 0x00, 0x00, 0x00, 0x00, 0x00, 0x00, 0x00, 0x00,
    0x00, 0x00, 0x00, 0x00, 0x00, 0x00, 0x00, 0x00, 0x00, 0x00, 0x00, 0x00,
    0x00, 0x00, 0x00, 0x00, 0x00, 0x00, 0x00, 0x00, 0x00, 0x00, 0x00, 0x00,
    0x00, 0x00, 0x00, 0x00, 0x00, 0x00, 0x00, 0x00, 0x00, 0x00, 0x00, 0x00,
    0x00, 0x00, 0x00, 0x00, 0x00, 0x00, 0x00, 0x00, 0x00, 0x00, 0x00, 0x00,
    0x00, 0x00, 0x00, 0x00, 0x00, 0x00, 0x00, 0x00, 0x00, 0x00, 0x00, 0x00,
    0x00, 0x00, 0x00, 0x00, 0x00, 0x00, 0x00, 0x00, 0x00, 0x00, 0x00, 0x00,
    0x00, 0x00, 0x00, 0x00, 0x00, 0x00, 0x00, 0x00, 0x00, 0x00, 0x00, 0x00,
    0x00, 0x00, 0x00, 0x00, 0x00, 0x00, 0x00, 0x00, 0x00, 0x00, 0x00, 0x00,
    0x00, 0x00, 0x00, 0x00, 0x00, 0x00, 0x00, 0x00, 0x00, 0x00, 0x00, 0x00,
    0x00, 0x00, 0x00, 0x00, 0x00, 0x00, 0x00, 0x00, 0x00, 0x00, 0x00, 0x00,
    0x00, 0x00, 0x00, 0x00, 0x00, 0x00, 0x00, 0x00, 0x00, 0x00, 0x00, 0x00,
    0x00, 0x00, 0x00, 0x00, 0x00, 0x00, 0x00, 0x00, 0x00, 0x00, 0x00, 0x00,
    0x00, 0x00, 0x00, 0x00, 0x00, 0x00, 0x00, 0x00, 0x00, 0x00, 0x00, 0x00,
    0x00, 0x00, 0x00, 0x00, 0x00, 0x00, 0x00, 0x00, 0x00, 0x00, 0x00, 0x00,
    0x00, 0x00, 0x00, 0x00, 0x00, 0x00, 0x00, 0x00, 0x00, 0x00, 0x00, 0x00,
    0x00, 0x00, 0x00, 0x00, 0x00, 0x00, 0x00, 0x00, 0x00, 0x00, 0x00, 0x00,
    0x00, 0x00, 0x00, 0x00, 0x00, 0x00, 0x00, 0x00, 0x00, 0x00, 0x00, 0x00,
    0x00, 0x00, 0x00, 0x00, 0x00, 0x00, 0x00, 0x00, 0x00, 0x00, 0x00, 0x00,
    0x00, 0x00, 0x00, 0x00, 0x20, 0x00, 0x00, 0x00, 0x9d, 0x5f, 0x80, 0x38,
    0xa5, 0x9d, 0x75, 0x38, 0xb0, 0x84, 0x4b, 0x38, 0x60, 0xa7, 0x58, 0x38,
    0x7a, 0x06, 0x95, 0x38, 0x05, 0x77, 0xac, 0x38, 0x95, 0xbf, 0x7d, 0x38,
    0x41, 0xbc, 0x70, 0x38, 0xc4, 0x8e, 0x87, 0x38, 0x46, 0xe7, 0x9d, 0x38,
    0x3b, 0x86, 0x9c, 0x38, 0xe2, 0x4a, 0x21, 0x38, 0x3c, 0x18, 0xae, 0x38,
    0xe1, 0xcc, 0xbd, 0x38, 0xd0, 0x5c, 0x93, 0x38, 0xaf, 0x20, 0xb7, 0x38,
    0xd6, 0xf9, 0x84, 0x38, 0x10, 0x23, 0xa7, 0x38, 0x24, 0x87, 0x9c, 0x38,
    0x24, 0xc3, 0x8d, 0x38, 0x46, 0xda, 0xae, 0x38, 0xaa, 0x23, 0x2e, 0x38,
    0x49, 0x8e, 0x91, 0x38, 0x94, 0xae, 0xa9, 0x38, 0x2d, 0xfa, 0x71, 0x38,
    0x84, 0x3a, 0x82, 0x38, 0xb0, 0xe1, 0x73, 0x38, 0x5c, 0x95, 0x8f, 0x38,
    0x08, 0x06, 0xa7, 0x38, 0xd9, 0x71, 0x83, 0x38, 0x6b, 0xb9, 0x97, 0x38,
    0xc8, 0xc7, 0x80, 0x38, 0x12, 0x00, 0x00, 0x00, 0x74, 0x66, 0x6c, 0x2e,
    0x70, 0x73, 0x65, 0x75, 0x64, 0x6f, 0x5f, 0x71, 0x63, 0x6f, 0x6e, 0x73,
    0x74, 0x36, 0x00, 0x00, 0x01, 0x00, 0x00, 0x00, 0x20, 0x00, 0x00, 0x00,
    0x4a, 0xfa, 0xff, 0xff, 0x00, 0x00, 0x00, 0x01, 0x14, 0x00, 0x00, 0x00,
    0xe8, 0x00, 0x00, 0x00, 0x0e, 0x00, 0x00, 0x00, 0x00, 0x00, 0x00, 0x09,
    0xf4, 0x00, 0x00, 0x00, 0xcc, 0xf9, 0xff, 0xff, 0x08, 0x00, 0x00, 0x00,
    0x8c, 0x00, 0x00, 0x00, 0x10, 0x00, 0x00, 0x00, 0x00, 0x00, 0x00, 0x00,
    0x00, 0x00, 0x00, 0x00, 0x00, 0x00, 0x00, 0x00, 0x00, 0x00, 0x00, 0x00,
    0x00, 0x00, 0x00, 0x00, 0x00, 0x00, 0x00, 0x00, 0x00, 0x00, 0x00, 0x00,
    0x00, 0x00, 0x00, 0x00, 0x00, 0x00, 0x00, 0x00, 0x00, 0x00, 0x00, 0x00,
    0x00, 0x00, 0x00, 0x00, 0x00, 0x00, 0x00, 0x00, 0x00, 0x00, 0x00, 0x00,
    0x00, 0x00, 0x00, 0x00, 0x00, 0x00, 0x00, 0x00, 0x00, 0x00, 0x00, 0x00,
    0x00, 0x00, 0x00, 0x00, 0x00, 0x00, 0x00, 0x00, 0x00, 0x00, 0x00, 0x00,
    0x00, 0x00, 0x00, 0x00, 0x00, 0x00, 0x00, 0x00, 0x00, 0x00, 0x00, 0x00,
    0x00, 0x00, 0x00, 0x00, 0x00, 0x00, 0x00, 0x00, 0x00, 0x00, 0x00, 0x00,
    0x00, 0x00, 0x00, 0x00, 0x00, 0x00, 0x00, 0x00, 0x00, 0x00, 0x00, 0x00,
    0x00, 0x00, 0x00, 0x00, 0x00, 0x00, 0x00, 0x00, 0x00, 0x00, 0x00, 0x00,
    0x00, 0x00, 0x00, 0x00, 0x00, 0x00, 0x00, 0x00, 0x10, 0x00, 0x00, 0x00,
    0x8b, 0xf1, 0x45, 0x3b, 0x01, 0x26, 0x48, 0x3b, 0xe4, 0x33, 0x89, 0x3b,
    0x2c, 0x94, 0x46, 0x3b, 0xb1, 0xd2, 0x42, 0x3b, 0xf6, 0xda, 0x3b, 0x3b,
    0xd1, 0x15, 0x35, 0x3b, 0x29, 0xa0, 0x2e, 0x3b, 0xae, 0x98, 0x60, 0x3b,
    0xd3, 0x30, 0x7c, 0x3b, 0x27, 0x04, 0x51, 0x3b, 0x33, 0xb8, 0x4b, 0x3b,
    0x31, 0x55, 0x46, 0x3b, 0xb6, 0xb1, 0x82, 0x3b, 0x15, 0x90, 0x5b, 0x3b,
    0x36, 0x9d, 0x67, 0x3b, 0x12, 0x00, 0x00, 0x00, 0x74, 0x66, 0x6c, 0x2e,
    0x70, 0x73, 0x65, 0x75, 0x64, 0x6f, 0x5f, 0x71, 0x63, 0x6f, 0x6e, 0x73,
    0x74, 0x35, 0x00, 0x00, 0x02, 0x00, 0x00, 0x00, 0x10, 0x00, 0x00, 0x00,
    0x20, 0x00, 0x00, 0x00, 0x62, 0xfb, 0xff, 0xff, 0x00, 0x00, 0x00, 0x01,
    0x14, 0x00, 0x00, 0x00, 0xe4, 0x00, 0x00, 0x00, 0x0d, 0x00, 0x00, 0x00,
    0x00, 0x00, 0x00, 0x02, 0xf0, 0x00, 0x00, 0x00, 0xe4, 0xfa, 0xff, 0xff,
    0x08, 0x00, 0x00, 0x00, 0x88, 0x00, 0x00, 0x00, 0x10, 0x00, 0x00, 0x00,
    0x00, 0x00, 0x00, 0x00, 0x00, 0x00, 0x00, 0x00, 0x00, 0x00, 0x00, 0x00,
    0x00, 0x00, 0x00, 0x00, 0x00, 0x00, 0x00, 0x00, 0x00, 0x00, 0x00, 0x00,
    0x00, 0x00, 0x00, 0x00, 0x00, 0x00, 0x00, 0x00, 0x00, 0x00, 0x00, 0x00,
    0x00, 0x00, 0x00, 0x00, 0x00, 0x00, 0x00, 0x00, 0x00, 0x00, 0x00, 0x00,
    0x00, 0x00, 0x00, 0x00, 0x00, 0x00, 0x00, 0x00, 0x00, 0x00, 0x00, 0x00,
    0x00, 0x00, 0x00, 0x00, 0x00, 0x00, 0x00, 0x00, 0x00, 0x00, 0x00, 0x00,
    0x00, 0x00, 0x00, 0x00, 0x00, 0x00, 0x00, 0x00, 0x00, 0x00, 0x00, 0x00,
    0x00, 0x00, 0x00, 0x00, 0x00, 0x00, 0x00, 0x00, 0x00, 0x00, 0x00, 0x00,
    0x00, 0x00, 0x00, 0x00, 0x00, 0x00, 0x00, 0x00, 0x00, 0x00, 0x00, 0x00,
    0x00, 0x00, 0x00, 0x00, 0x00, 0x00, 0x00, 0x00, 0x00, 0x00, 0x00, 0x00,
    0x00, 0x00, 0x00, 0x00, 0x00, 0x00, 0x00, 0x00, 0x10, 0x00, 0x00, 0x00,
    0xf3, 0x07, 0x05, 0x38, 0x4e, 0x83, 0x06, 0x38, 0x1f, 0x6b, 0x38, 0x38,
    0x3f, 0x75, 0x05, 0x38, 0x11, 0xef, 0x02, 0x38, 0x91, 0x80, 0xfc, 0x37,
    0xff, 0x66, 0xf3, 0x37, 0x43, 0xb8, 0xea, 0x37, 0x8b, 0xf1, 0x16, 0x38,
    0x1d, 0x7d, 0x29, 0x38, 0xfe, 0x78, 0x0c, 0x38, 0xb4, 0xe9, 0x08, 0x38,
    0xeb, 0x4a, 0x05, 0x38, 0x8f, 0xab, 0x2f, 0x38, 0x86, 0x8f, 0x13, 0x38,
    0xef, 0xa8, 0x1b, 0x38, 0x12, 0x00, 0x00, 0x00, 0x74, 0x66, 0x6c, 0x2e,
    0x70, 0x73, 0x65, 0x75, 0x64, 0x6f, 0x5f, 0x71, 0x63, 0x6f, 0x6e, 0x73,
    0x74, 0x34, 0x00, 0x00, 0x01, 0x00, 0x00, 0x00, 0x10, 0x00, 0x00, 0x00,
    0x72, 0xfc, 0xff, 0xff, 0x00, 0x00, 0x00, 0x01, 0x14, 0x00, 0x00, 0x00,
    0x88, 0x00, 0x00, 0x00, 0x0c, 0x00, 0x00, 0x00, 0x00, 0x00, 0x00, 0x09,
    0x94, 0x00, 0x00, 0x00, 0xf4, 0xfb, 0xff, 0xff, 0x08, 0x00, 0x00, 0x00,
    0x4c, 0x00, 0x00, 0x00, 0x08, 0x00, 0x00, 0x00, 0x00, 0x00, 0x00, 0x00,
    0x00, 0x00, 0x00, 0x00, 0x00, 0x00, 0x00, 0x00, 0x00, 0x00, 0x00, 0x00,
    0x00, 0x00, 0x00, 0x00, 0x00, 0x00, 0x00, 0x00, 0x00, 0x00, 0x00, 0x00,
    0x00, 0x00, 0x00, 0x00, 0x00, 0x00, 0x00, 0x00, 0x00, 0x00, 0x00, 0x00,
    0x00, 0x00, 0x00, 0x00, 0x00, 0x00, 0x00, 0x00, 0x00, 0x00, 0x00, 0x00,
    0x00, 0x00, 0x00, 0x00, 0x00, 0x00, 0x00, 0x00, 0x00, 0x00, 0x00, 0x00,
    0x00, 0x00, 0x00, 0x00, 0x08, 0x00, 0x00, 0x00, 0x78, 0x6a, 0xc2, 0x3b,
    0x79, 0x1f, 0x89, 0x3b, 0xa5, 0x7c, 0x84, 0x3b, 0x1d, 0xbd, 0x71, 0x3b,
    0x3c, 0xbf, 0x95, 0x3b, 0xf7, 0x5f, 0x75, 0x3b, 0x91, 0xf2, 0x7a, 0x3b,
    0x65, 0xb1, 0x6e, 0x3b, 0x12, 0x00, 0x00, 0x00, 0x74, 0x66, 0x6c, 0x2e,
    0x70, 0x73, 0x65, 0x75, 0x64, 0x6f, 0x5f, 0x71, 0x63, 0x6f, 0x6e, 0x73,
    0x74, 0x33, 0x00, 0x00, 0x02, 0x00, 0x00, 0x00, 0x08, 0x00, 0x00, 0x00,
    0x10, 0x00, 0x00, 0x00, 0x2a, 0xfd, 0xff, 0xff, 0x00, 0x00, 0x00, 0x01,
    0x14, 0x00, 0x00, 0x00, 0x84, 0x00, 0x00, 0x00, 0x0b, 0x00, 0x00, 0x00,
    0x00, 0x00, 0x00, 0x02, 0x90, 0x00, 0x00, 0x00, 0xac, 0xfc, 0xff, 0xff,
    0x08, 0x00, 0x00, 0x00, 0x48, 0x00, 0x00, 0x00, 0x08, 0x00, 0x00, 0x00,
    0x00, 0x00, 0x00, 0x00, 0x00, 0x00, 0x00, 0x00, 0x00, 0x00, 0x00, 0x00,
    0x00, 0x00, 0x00, 0x00, 0x00, 0x00, 0x00, 0x00, 0x00, 0x00, 0x00, 0x00,
    0x00, 0x00, 0x00, 0x00, 0x00, 0x00, 0x00, 0x00, 0x00, 0x00, 0x00, 0x00,
    0x00, 0x00, 0x00, 0x00, 0x00, 0x00, 0x00, 0x00, 0x00, 0x00, 0x00, 0x00,
    0x00, 0x00, 0x00, 0x00, 0x00, 0x00, 0x00, 0x00, 0x00, 0x00, 0x00, 0x00,
    0x00, 0x00, 0x00, 0x00, 0x08, 0x00, 0x00, 0x00, 0xb5, 0x4c, 0xf1, 0x38,
    0xbd, 0x30, 0xaa, 0x38, 0xb4, 0x6f, 0xa4, 0x38, 0x69, 0x04, 0x96, 0x38,
    0xd8, 0xdb, 0xb9, 0x38, 0x13, 0x46, 0x98, 0x38, 0x64, 0xbb, 0x9b, 0x38,
    0x89, 0x20, 0x94, 0x38, 0x12, 0x00, 0x00, 0x00, 0x74, 0x66, 0x6c, 0x2e,
    0x70, 0x73, 0x65, 0x75, 0x64, 0x6f, 0x5f, 0x71, 0x63, 0x6f, 0x6e, 0x73,
    0x74, 0x32, 0x00, 0x00, 0x01, 0x00, 0x00, 0x00, 0x08, 0x00, 0x00, 0x00,
    0xda, 0xfd, 0xff, 0xff, 0x00, 0x00, 0x00, 0x01, 0x14, 0x00, 0x00, 0x00,
    0x30, 0x00, 0x00, 0x00, 0x0a, 0x00, 0x00, 0x00, 0x00, 0x00, 0x00, 0x09,
    0x3c, 0x00, 0x00, 0x00, 0x5c, 0xfd, 0xff, 0xff, 0x08, 0x00, 0x00, 0x00,
    0x10, 0x00, 0x00, 0x00, 0x01, 0x00, 0x00, 0x00, 0x00, 0x00, 0x00, 0x00,
    0x00, 0x00, 0x00, 0x00, 0x01, 0x00, 0x00, 0x00, 0xae, 0x77, 0xed, 0x3b,
    0x12, 0x00, 0x00, 0x00, 0x74, 0x66, 0x6c, 0x2e, 0x70, 0x73, 0x65, 0x75,
    0x64, 0x6f, 0x5f, 0x71, 0x63, 0x6f, 0x6e, 0x73, 0x74, 0x31, 0x00, 0x00,
    0x02, 0x00, 0x00, 0x00, 0x01, 0x00, 0x00, 0x00, 0x08, 0x00, 0x00, 0x00,
    0x3a, 0xfe, 0xff, 0xff, 0x00, 0x00, 0x00, 0x01, 0x14, 0x00, 0x00, 0x00,
    0x34, 0x00, 0x00, 0x00, 0x09, 0x00, 0x00, 0x00, 0x00, 0x00, 0x00, 0x02,
    0x40, 0x00, 0x00, 0x00, 0xbc, 0xfd, 0xff, 0xff, 0x08, 0x00, 0x00, 0x00,
    0x14, 0x00, 0x00, 0x00, 0x01, 0x00, 0x00, 0x00, 0x00, 0x00, 0x00, 0x00,
    0x00, 0x00, 0x00, 0x00, 0x00, 0x00, 0x00, 0x00, 0x01, 0x00, 0x00, 0x00,
    0x84, 0xf0, 0x3d, 0x39, 0x11, 0x00, 0x00, 0x00, 0x74, 0x66, 0x6c, 0x2e,
    0x70, 0x73, 0x65, 0x75, 0x64, 0x6f, 0x5f, 0x71, 0x63, 0x6f, 0x6e, 0x73,
    0x74, 0x00, 0x00, 0x00, 0x01, 0x00, 0x00, 0x00, 0x01, 0x00, 0x00, 0x00,
    0x9a, 0xfe, 0xff, 0xff, 0x00, 0x00, 0x00, 0x01, 0x14, 0x00, 0x00, 0x00,
    0x14, 0x00, 0x00, 0x00, 0x08, 0x00, 0x00, 0x00, 0x00, 0x00, 0x00, 0x02,
    0x1c, 0x00, 0x00, 0x00, 0x84, 0xfe, 0xff, 0xff, 0x0f, 0x00, 0x00, 0x00,
    0x61, 0x72, 0x69, 0x74, 0x68, 0x2e, 0x63, 0x6f, 0x6e, 0x73, 0x74, 0x61,
    0x6e, 0x74, 0x36, 0x00, 0x01, 0x00, 0x00, 0x00, 0x03, 0x00, 0x00, 0x00,
    0xd6, 0xfe, 0xff, 0xff, 0x00, 0x00, 0x00, 0x01, 0x14, 0x00, 0x00, 0x00,
    0x14, 0x00, 0x00, 0x00, 0x07, 0x00, 0x00, 0x00, 0x00, 0x00, 0x00, 0x02,
    0x1c, 0x00, 0x00, 0x00, 0xc0, 0xfe, 0xff, 0xff, 0x0f, 0x00, 0x00, 0x00,
    0x61, 0x72, 0x69, 0x74, 0x68, 0x2e, 0x63, 0x6f, 0x6e, 0x73, 0x74, 0x61,
    0x6e, 0x74, 0x35, 0x00, 0x01, 0x00, 0x00, 0x00, 0x03, 0x00, 0x00, 0x00,
    0x12, 0xff, 0xff, 0xff, 0x00, 0x00, 0x00, 0x01, 0x14, 0x00, 0x00, 0x00,
    0x14, 0x00, 0x00, 0x00, 0x06, 0x00, 0x00, 0x00, 0x00, 0x00, 0x00, 0x02,
    0x1c, 0x00, 0x00, 0x00, 0xfc, 0xfe, 0xff, 0xff, 0x0f, 0x00, 0x00, 0x00,
    0x61, 0x72, 0x69, 0x74, 0x68, 0x2e, 0x63, 0x6f, 0x6e, 0x73, 0x74, 0x61,
    0x6e, 0x74, 0x34, 0x00, 0x01, 0x00, 0x00, 0x00, 0x03, 0x00, 0x00, 0x00,
    0x4e, 0xff, 0xff, 0xff, 0x00, 0x00, 0x00, 0x01, 0x14, 0x00, 0x00, 0x00,
    0x14, 0x00, 0x00, 0x00, 0x05, 0x00, 0x00, 0x00, 0x00, 0x00, 0x00, 0x02,
    0x1c, 0x00, 0x00, 0x00, 0x38, 0xff, 0xff, 0xff, 0x0f, 0x00, 0x00, 0x00,
    0x61, 0x72, 0x69, 0x74, 0x68, 0x2e, 0x63, 0x6f, 0x6e, 0x73, 0x74, 0x61,
    0x6e, 0x74, 0x33, 0x00, 0x01, 0x00, 0x00, 0x00, 0x03, 0x00, 0x00, 0x00,
    0x8a, 0xff, 0xff, 0xff, 0x00, 0x00, 0x00, 0x01, 0x14, 0x00, 0x00, 0x00,
    0x14, 0x00, 0x00, 0x00, 0x04, 0x00, 0x00, 0x00, 0x00, 0x00, 0x00, 0x02,
    0x1c, 0x00, 0x00, 0x00, 0x74, 0xff, 0xff, 0xff, 0x0f, 0x00, 0x00, 0x00,
    0x61, 0x72, 0x69, 0x74, 0x68, 0x2e, 0x63, 0x6f, 0x6e, 0x73, 0x74, 0x61,
    0x6e, 0x74, 0x32, 0x00, 0x00, 0x00, 0x00, 0x00, 0xc2, 0xff, 0xff, 0xff,
    0x00, 0x00, 0x00, 0x01, 0x14, 0x00, 0x00, 0x00, 0x14, 0x00, 0x00, 0x00,
    0x03, 0x00, 0x00, 0x00, 0x00, 0x00, 0x00, 0x02, 0x1c, 0x00, 0x00, 0x00,
    0xac, 0xff, 0xff, 0xff, 0x0f, 0x00, 0x00, 0x00, 0x61, 0x72, 0x69, 0x74,
    0x68, 0x2e, 0x63, 0x6f, 0x6e, 0x73, 0x74, 0x61, 0x6e, 0x74, 0x31, 0x00,
    0x01, 0x00, 0x00, 0x00, 0x03, 0x00, 0x00, 0x00, 0x00, 0x00, 0x16, 0x00,
    0x1c, 0x00, 0x18, 0x00, 0x17, 0x00, 0x10, 0x00, 0x0c, 0x00, 0x08, 0x00,
    0x00, 0x00, 0x00, 0x00, 0x00, 0x00, 0x07, 0x00, 0x16, 0x00, 0x00, 0x00,
    0x00, 0x00, 0x00, 0x01, 0x18, 0x00, 0x00, 0x00, 0x18, 0x00, 0x00, 0x00,
    0x02, 0x00, 0x00, 0x00, 0x00, 0x00, 0x00, 0x02, 0x20, 0x00, 0x00, 0x00,
    0x04, 0x00, 0x04, 0x00, 0x04, 0x00, 0x00, 0x00, 0x0e, 0x00, 0x00, 0x00,
    0x61, 0x72, 0x69, 0x74, 0x68, 0x2e, 0x63, 0x6f, 0x6e, 0x73, 0x74, 0x61,
    0x6e, 0x74, 0x00, 0x00, 0x00, 0x00, 0x00, 0x00, 0x00, 0x00, 0x16, 0x00,
    0x20, 0x00, 0x1c, 0x00, 0x1b, 0x00, 0x14, 0x00, 0x10, 0x00, 0x0c, 0x00,
    0x00, 0x00, 0x00, 0x00, 0x08, 0x00, 0x07, 0x00, 0x16, 0x00, 0x00, 0x00,
    0x00, 0x00, 0x00, 0x01, 0x18, 0x00, 0x00, 0x00, 0x30, 0x00, 0x00, 0x00,
    0x50, 0x00, 0x00, 0x00, 0x01, 0x00, 0x00, 0x00, 0x00, 0x00, 0x00, 0x09,
    0x68, 0x00, 0x00, 0x00, 0x03, 0x00, 0x00, 0x00, 0xff, 0xff, 0xff, 0xff,
    0x32, 0x00, 0x00, 0x00, 0x14, 0x00, 0x00, 0x00, 0x0c, 0x00, 0x0c, 0x00,
    0x00, 0x00, 0x00, 0x00, 0x08, 0x00, 0x04, 0x00, 0x0c, 0x00, 0x00, 0x00,
    0x08, 0x00, 0x00, 0x00, 0x14, 0x00, 0x00, 0x00, 0x01, 0x00, 0x00, 0x00,
    0x54, 0x00, 0x00, 0x00, 0x00, 0x00, 0x00, 0x00, 0x00, 0x00, 0x00, 0x00,
    0x01, 0x00, 0x00, 0x00, 0x89, 0x97, 0x6a, 0x40, 0x1e, 0x00, 0x00, 0x00,
    0x73, 0x65, 0x72, 0x76, 0x69, 0x6e, 0x67, 0x5f, 0x64, 0x65, 0x66, 0x61,
    0x75, 0x6c, 0x74, 0x5f, 0x6b, 0x65, 0x72, 0x61, 0x73, 0x5f, 0x74, 0x65,
    0x6e, 0x73, 0x6f, 0x72, 0x3a, 0x30, 0x00, 0x00, 0x03, 0x00, 0x00, 0x00,
    0x01, 0x00, 0x00, 0x00, 0x32, 0x00, 0x00, 0x00, 0x14, 0x00, 0x00, 0x00,
    0x07, 0x00, 0x00, 0x00, 0x90, 0x00, 0x00, 0x00, 0x70, 0x00, 0x00, 0x00,
    0x54, 0x00, 0x00, 0x00, 0x40, 0x00, 0x00, 0x00, 0x2c, 0x00, 0x00, 0x00,
    0x18, 0x00, 0x00, 0x00, 0x04, 0x00, 0x00, 0x00, 0xb4, 0xff, 0xff, 0xff,
    0x0e, 0x00, 0x00, 0x00, 0x02, 0x00, 0x00, 0x00, 0x00, 0x00, 0x00, 0x0e,
    0xc4, 0xff, 0xff, 0xff, 0x09, 0x00, 0x00, 0x00, 0x04, 0x00, 0x00, 0x00,
    0x00, 0x00, 0x00, 0x09, 0xd4, 0xff, 0xff, 0xff, 0x28, 0x00, 0x00, 0x00,
    0x02, 0x00, 0x00, 0x00, 0x00, 0x00, 0x00, 0x28, 0xe4, 0xff, 0xff, 0xff,
    0x11, 0x00, 0x00, 0x00, 0x02, 0x00, 0x00, 0x00, 0x00, 0x00, 0x00, 0x11,
    0xd8, 0xff, 0xff, 0xff, 0x16, 0x00, 0x00, 0x00, 0x00, 0x00, 0x00, 0x16,
    0x0c, 0x00, 0x10, 0x00, 0x0f, 0x00, 0x00, 0x00, 0x08, 0x00, 0x04, 0x00,
    0x0c, 0x00, 0x00, 0x00, 0x03, 0x00, 0x00, 0x00, 0x03, 0x00, 0x00, 0x00,
    0x00, 0x00, 0x00, 0x03, 0x0c, 0x00, 0x0c, 0x00, 0x0b, 0x00, 0x00, 0x00,
    0x00, 0x00, 0x04, 0x00, 0x0c, 0x00, 0x00, 0x00, 0x46, 0x00, 0x00, 0x00,
    0x00, 0x00, 0x00, 0x46,
};
